<unk>	0
<s>	0
</s>	0
<0x00>	0
<0x01>	0
<0x02>	0
<0x03>	0
<0x04>	0
<0x05>	0
<0x06>	0
<0x07>	0
<0x08>	0
<0x09>	0
<0x0A>	0
<0x0B>	0
<0x0C>	0
<0x0D>	0
<0x0E>	0
<0x0F>	0
<0x10>	0
<0x11>	0
<0x12>	0
<0x13>	0
<0x14>	0
<0x15>	0
<0x16>	0
<0x17>	0
<0x18>	0
<0x19>	0
<0x1A>	0
<0x1B>	0
<0x1C>	0
<0x1D>	0
<0x1E>	0
<0x1F>	0
<0x20>	0
<0x21>	0
<0x22>	0
<0x23>	0
<0x24>	0
<0x25>	0
<0x26>	0
<0x27>	0
<0x28>	0
<0x29>	0
<0x2A>	0
<0x2B>	0
<0x2C>	0
<0x2D>	0
<0x2E>	0
<0x2F>	0
<0x30>	0
<0x31>	0
<0x32>	0
<0x33>	0
<0x34>	0
<0x35>	0
<0x36>	0
<0x37>	0
<0x38>	0
<0x39>	0
<0x3A>	0
<0x3B>	0
<0x3C>	0
<0x3D>	0
<0x3E>	0
<0x3F>	0
<0x40>	0
<0x41>	0
<0x42>	0
<0x43>	0
<0x44>	0
<0x45>	0
<0x46>	0
<0x47>	0
<0x48>	0
<0x49>	0
<0x4A>	0
<0x4B>	0
<0x4C>	0
<0x4D>	0
<0x4E>	0
<0x4F>	0
<0x50>	0
<0x51>	0
<0x52>	0
<0x53>	0
<0x54>	0
<0x55>	0
<0x56>	0
<0x57>	0
<0x58>	0
<0x59>	0
<0x5A>	0
<0x5B>	0
<0x5C>	0
<0x5D>	0
<0x5E>	0
<0x5F>	0
<0x60>	0
<0x61>	0
<0x62>	0
<0x63>	0
<0x64>	0
<0x65>	0
<0x66>	0
<0x67>	0
<0x68>	0
<0x69>	0
<0x6A>	0
<0x6B>	0
<0x6C>	0
<0x6D>	0
<0x6E>	0
<0x6F>	0
<0x70>	0
<0x71>	0
<0x72>	0
<0x73>	0
<0x74>	0
<0x75>	0
<0x76>	0
<0x77>	0
<0x78>	0
<0x79>	0
<0x7A>	0
<0x7B>	0
<0x7C>	0
<0x7D>	0
<0x7E>	0
<0x7F>	0
<0x80>	0
<0x81>	0
<0x82>	0
<0x83>	0
<0x84>	0
<0x85>	0
<0x86>	0
<0x87>	0
<0x88>	0
<0x89>	0
<0x8A>	0
<0x8B>	0
<0x8C>	0
<0x8D>	0
<0x8E>	0
<0x8F>	0
<0x90>	0
<0x91>	0
<0x92>	0
<0x93>	0
<0x94>	0
<0x95>	0
<0x96>	0
<0x97>	0
<0x98>	0
<0x99>	0
<0x9A>	0
<0x9B>	0
<0x9C>	0
<0x9D>	0
<0x9E>	0
<0x9F>	0
<0xA0>	0
<0xA1>	0
<0xA2>	0
<0xA3>	0
<0xA4>	0
<0xA5>	0
<0xA6>	0
<0xA7>	0
<0xA8>	0
<0xA9>	0
<0xAA>	0
<0xAB>	0
<0xAC>	0
<0xAD>	0
<0xAE>	0
<0xAF>	0
<0xB0>	0
<0xB1>	0
<0xB2>	0
<0xB3>	0
<0xB4>	0
<0xB5>	0
<0xB6>	0
<0xB7>	0
<0xB8>	0
<0xB9>	0
<0xBA>	0
<0xBB>	0
<0xBC>	0
<0xBD>	0
<0xBE>	0
<0xBF>	0
<0xC0>	0
<0xC1>	0
<0xC2>	0
<0xC3>	0
<0xC4>	0
<0xC5>	0
<0xC6>	0
<0xC7>	0
<0xC8>	0
<0xC9>	0
<0xCA>	0
<0xCB>	0
<0xCC>	0
<0xCD>	0
<0xCE>	0
<0xCF>	0
<0xD0>	0
<0xD1>	0
<0xD2>	0
<0xD3>	0
<0xD4>	0
<0xD5>	0
<0xD6>	0
<0xD7>	0
<0xD8>	0
<0xD9>	0
<0xDA>	0
<0xDB>	0
<0xDC>	0
<0xDD>	0
<0xDE>	0
<0xDF>	0
<0xE0>	0
<0xE1>	0
<0xE2>	0
<0xE3>	0
<0xE4>	0
<0xE5>	0
<0xE6>	0
<0xE7>	0
<0xE8>	0
<0xE9>	0
<0xEA>	0
<0xEB>	0
<0xEC>	0
<0xED>	0
<0xEE>	0
<0xEF>	0
<0xF0>	0
<0xF1>	0
<0xF2>	0
<0xF3>	0
<0xF4>	0
<0xF5>	0
<0xF6>	0
<0xF7>	0
<0xF8>	0
<0xF9>	0
<0xFA>	0
<0xFB>	0
<0xFC>	0
<0xFD>	0
<0xFE>	0
<0xFF>	0
.	-3.1741
▁	-3.20186
,	-3.51628
'	-3.71782
1	-3.99123
▁ve	-4.10047
0	-4.22233
2	-4.37545
▁bir	-4.53453
9	-4.57608
8	-5.24867
▁(	-5.26325
da	-5.27595
de	-5.30863
3	-5.31234
a	-5.32584
5	-5.33443
-	-5.37463
e	-5.3817
i	-5.40419
4	-5.42473
n	-5.43708
6	-5.43787
▁olarak	-5.43846
7	-5.43943
in	-5.5141
▁ile	-5.61335
nin	-5.62981
lar	-5.63328
)	-5.64686
ler	-5.67122
nın	-5.72708
▁için	-5.78891
s	-5.84908
k	-5.86811
▁"	-5.96945
ya	-5.97204
▁bu	-5.97614
▁olan	-5.97961
"	-5.98008
ın	-5.98292
na	-5.98693
ne	-6.04605
te	-6.05065
’	-6.12527
ları	-6.12678
▁da	-6.13844
leri	-6.14951
▁tarafından	-6.1596
▁de	-6.17647
▁Bu	-6.19757
▁yılında	-6.20195
t	-6.23981
▁sonra	-6.25439
li	-6.27365
ı	-6.27834
ni	-6.30895
u	-6.35142
d	-6.36656
ye	-6.39286
den	-6.41814
si	-6.41859
dir	-6.43027
un	-6.43034
ta	-6.46484
:	-6.4742
▁daha	-6.49858
▁ilk	-6.50365
nde	-6.51695
nda	-6.53786
dan	-6.55219
la	-6.55747
),	-6.56016
▁en	-6.571
▁yer	-6.57503
le	-6.57858
r	-6.59191
dır	-6.63309
z	-6.64785
lı	-6.67387
;	-6.70091
m	-6.71288
▁gibi	-6.75969
y	-6.77098
▁ise	-6.77822
l	-6.77893
o	-6.7866
ların	-6.8172
▁bağlı	-6.8245
▁arasında	-6.8264
nı	-6.84681
▁kadar	-6.86149
▁çok	-6.86364
di	-6.86471
lerin	-6.88232
▁A	-6.89033
sı	-6.904
ma	-6.90746
▁veya	-6.93754
▁iki	-6.94875
an	-6.95569
▁büyük	-6.96392
lik	-6.96919
ki	-6.98645
en	-7.00047
▁oldu	-7.02818
er	-7.11791
daki	-7.11811
nun	-7.12117
▁göre	-7.14519
yı	-7.15522
▁olduğu	-7.17616
▁S	-7.20044
yi	-7.22042
ca	-7.25687
▁bulunan	-7.27093
nden	-7.27098
▁tarihinde	-7.27896
▁birlikte	-7.28955
▁diğer	-7.32242
p	-7.32362
▁Türkiye	-7.32441
ti	-7.32902
▁karşı	-7.33826
sa	-7.35001
▁etti	-7.35652
▁alan	-7.36494
lu	-7.36649
h	-7.37149
▁km	-7.37179
ndan	-7.37263
▁Türk	-7.38596
larını	-7.40013
▁yeni	-7.40755
▁-	-7.4081
▁aynı	-7.40902
se	-7.41589
yle	-7.42291
lık	-7.42319
lara	-7.4256
lerini	-7.43295
man	-7.43906
▁O	-7.44012
▁yıl	-7.44205
ş	-7.44542
me	-7.44939
deki	-7.45271
yla	-7.46949
c	-7.47332
g	-7.47788
al	-7.48114
▁ancak	-7.51111
▁aldı	-7.51527
ten	-7.51732
▁I	-7.52258
▁adlı	-7.52716
lere	-7.52895
tan	-7.53672
▁adı	-7.54117
ka	-7.54799
larının	-7.56428
▁her	-7.57083
us	-7.57243
larda	-7.59221
ken	-7.5972
f	-7.59778
▁ya	-7.60684
▁başladı	-7.61456
▁İstanbul	-7.61842
▁önemli	-7.62134
▁önce	-7.62711
ci	-7.63734
ce	-7.64144
▁eski	-7.64284
▁The	-7.64743
lerinin	-7.65425
▁Dünya	-7.65434
▁son	-7.65538
▁E	-7.65941
▁Bir	-7.66929
lerde	-7.68965
ra	-7.68969
▁üzere	-7.69509
▁Avrupa	-7.70209
ü	-7.71284
ar	-7.71838
▁olduğunu	-7.71896
on	-7.72794
▁sahip	-7.72964
▁Mart	-7.73613
A	-7.73704
▁şekilde	-7.74026
▁fazla	-7.74119
▁yapılan	-7.74171
b	-7.75143
dı	-7.75428
▁Üniversitesi	-7.75643
▁K	-7.7594
ini	-7.75991
▁of	-7.76214
S	-7.77066
▁görev	-7.77263
ine	-7.77711
▁yaptı	-7.77717
/	-7.78174
x	-7.78745
▁kabul	-7.78805
▁üzerine	-7.79911
▁olmuştur	-7.80968
ir	-7.81043
▁içinde	-7.81331
dur	-7.82599
larına	-7.829
▁birçok	-7.82925
▁ilçesine	-7.83281
▁tüm	-7.83311
▁kez	-7.8371
el	-7.83746
▁Mayıs	-7.83981
▁%	-7.83998
▁devam	-7.84447
▁gelen	-7.85036
▁yüksek	-7.85657
▁kendi	-7.85678
▁Ocak	-7.85772
ga	-7.85803
ri	-7.8586
▁tek	-7.86033
bi	-7.86195
▁üç	-7.86308
▁ardından	-7.86427
▁ikinci	-7.86623
▁B	-7.8674
▁vardır	-7.86841
larında	-7.86887
v	-7.87136
B	-7.87234
at	-7.87694
ba	-7.87814
lerine	-7.87934
va	-7.87939
▁Osmanlı	-7.88025
▁Kasım	-7.88091
▁Ayrıca	-7.88103
▁o	-7.8913
▁olmak	-7.89197
tı	-7.89655
lerinden	-7.89746
lan	-7.89906
▁T	-7.90097
▁Eylül	-7.9055
▁eden	-7.90564
ge	-7.90954
ün	-7.91191
▁sırasında	-7.91638
▁iyi	-7.91686
lerinde	-7.91718
▁Ekim	-7.9172
▁M	-7.91893
▁hem	-7.92844
re	-7.92889
ç	-7.92952
▁Haziran	-7.9349
▁bazı	-7.94172
▁P	-7.94529
tır	-7.94602
▁geri	-7.94635
▁Temmuz	-7.95077
▁Nisan	-7.95118
▁zaman	-7.95217
▁Ağustos	-7.95321
sel	-7.95527
ik	-7.96144
lardan	-7.96509
▁Aralık	-7.96961
▁farklı	-7.9759
ur	-7.9761
to	-7.97807
▁En	-7.97818
▁üzerinde	-7.97847
▁Daha	-7.98273
ter	-7.98668
C	-7.98741
▁C	-7.99
es	-7.99928
lerden	-8.00305
it	-8.00478
▁Amerika	-8.00614
”	-8.01208
▁ABD	-8.01257
larından	-8.01479
▁nedeniyle	-8.01555
▁G	-8.01603
▁süre	-8.01658
▁Ancak	-8.01983
▁U	-8.03066
ro	-8.03383
▁çeşitli	-8.03403
tir	-8.03414
▁Savaşı	-8.03663
▁D	-8.03883
cı	-8.03916
▁“	-8.04081
il	-8.04331
st	-8.04831
▁F	-8.05447
▁Şubat	-8.0562
▁ortaya	-8.05714
▁olup	-8.0576
▁su	-8.05956
nu	-8.06647
▁yılı	-8.06677
T	-8.06777
▁yeniden	-8.06819
K	-8.07196
▁Birleşik	-8.0749
▁küçük	-8.07523
su	-8.07714
▁biri	-8.08053
▁boyunca	-8.08597
▁az	-8.08689
be	-8.09144
▁the	-8.09483
ır	-8.09504
▁ilinin	-8.0987
).	-8.10308
▁Ha	-8.10444
mi	-8.10717
liği	-8.10936
D	-8.1111
▁gün	-8.1115
ak	-8.11637
▁zamanda	-8.11713
ck	-8.11776
▁kişi	-8.11795
▁bulunmaktadır	-8.12082
▁Re	-8.12263
▁edildi	-8.13203
is	-8.13256
▁yol	-8.14775
▁iş	-8.14965
▁Se	-8.15191
▁İlk	-8.15809
▁yılları	-8.15919
ke	-8.15943
du	-8.16063
▁yaklaşık	-8.16483
os	-8.16506
j	-8.16852
▁dahil	-8.16884
im	-8.17239
▁sadece	-8.17554
▁doğru	-8.17647
um	-8.17927
G	-8.18253
▁La	-8.18295
▁De	-8.19391
ını	-8.19477
▁merkezine	-8.19789
P	-8.20057
et	-8.20264
▁uzun	-8.20346
▁savaş	-8.20795
ydı	-8.21413
len	-8.21799
ha	-8.21935
▁genel	-8.22212
sini	-8.22274
▁sıra	-8.22704
▁ana	-8.22759
mış	-8.22938
▁kazandı	-8.23229
▁edilen	-8.23377
lü	-8.23435
▁II	-8.23636
▁ev	-8.23724
mıştır	-8.23823
▁Alman	-8.23831
▁altında	-8.23989
ydi	-8.24331
▁yakın	-8.24562
▁R	-8.24767
▁devlet	-8.24854
▁il	-8.24872
▁yerine	-8.25111
▁Al	-8.25259
▁film	-8.25616
lığı	-8.25822
sını	-8.25884
larla	-8.25953
▁Sa	-8.26484
yan	-8.26528
▁nüfusu	-8.2683
ran	-8.26857
▁Na	-8.27127
▁Yeni	-8.27227
lo	-8.2726
▁Ka	-8.27284
ve	-8.28153
ton	-8.28448
do	-8.28497
▁kısa	-8.28531
▁başka	-8.28648
▁rağmen	-8.28856
E	-8.29358
▁hayvan	-8.29427
▁bulunur	-8.29546
H	-8.2968
▁yaptığı	-8.29851
lerle	-8.29912
th	-8.29921
sal	-8.30142
▁özel	-8.30212
▁Me	-8.31156
▁Her	-8.31356
▁açık	-8.31602
ch	-8.3177
▁eder	-8.32185
▁İngiliz	-8.32465
▁ayrıca	-8.32494
▁Fransa	-8.32683
▁Almanya	-8.32717
▁müzik	-8.32724
▁genellikle	-8.3281
▁ilgili	-8.3317
▁Ar	-8.33746
F	-8.33922
der	-8.3441
▁karar	-8.34481
miştir	-8.35124
▁H	-8.35151
▁ele	-8.35707
▁Le	-8.35809
▁dört	-8.35856
w	-8.36148
no	-8.36164
▁merkezi	-8.36199
sine	-8.36919
yu	-8.37013
za	-8.37777
▁takım	-8.38094
▁tekrar	-8.38111
▁el	-8.38411
▁grup	-8.38552
▁Ankara	-8.39079
O	-8.39121
▁elde	-8.3945
miş	-8.39678
▁beri	-8.39832
▁Ma	-8.40186
▁İngiltere	-8.40811
▁insan	-8.40932
▁Kuzey	-8.41095
son	-8.41104
▁Roma	-8.41169
tu	-8.41227
▁and	-8.41463
▁on	-8.4151
▁Doğu	-8.41576
▁sahiptir	-8.41866
▁Rus	-8.4194
▁neden	-8.42114
▁El	-8.42218
▁New	-8.42241
▁oyuncu	-8.42468
▁Güney	-8.42937
▁kadın	-8.42954
luk	-8.42984
▁Rusya	-8.43453
ndeki	-8.43474
î	-8.43809
▁adıyla	-8.43863
▁milyon	-8.44089
zi	-8.44091
▁almıştır	-8.44279
mak	-8.44428
ol	-8.44435
▁Köy	-8.44448
ması	-8.44577
▁Li	-8.44625
▁geldi	-8.44644
▁verdi	-8.44681
▁birkaç	-8.44904
▁edilmiştir	-8.4494
▁onu	-8.45114
spor	-8.45358
▁arasındaki	-8.45862
▁Genel	-8.45885
ing	-8.45891
▁bilinen	-8.46068
han	-8.46237
▁Fransız	-8.46535
▁N	-8.46625
ia	-8.46704
▁sonunda	-8.46859
arak	-8.47111
çi	-8.47127
▁ay	-8.47194
▁ait	-8.47236
inin	-8.47401
▁çıktı	-8.47478
▁tarihi	-8.47505
▁ilçe	-8.48651
▁Birliği	-8.48743
▁kullanılan	-8.48841
▁Cumhuriyeti	-8.48849
lama	-8.4907
▁Amerikan	-8.49156
▁çıkar	-8.49277
▁sırada	-8.49499
▁gelir	-8.49593
mo	-8.49637
▁köy	-8.49689
go	-8.49762
▁yapan	-8.49931
▁Ca	-8.49934
▁Kara	-8.50039
▁rol	-8.50173
▁Çin	-8.50267
▁V	-8.50313
▁oluşan	-8.50388
▁Er	-8.50498
é	-8.50504
▁eğitim	-8.50736
▁etmek	-8.51076
tik	-8.51257
▁hava	-8.51325
▁olması	-8.51626
▁uzaklıktadır	-8.51795
gen	-8.51928
or	-8.52037
▁inşa	-8.52258
men	-8.52288
vi	-8.52473
▁özellikle	-8.52555
V	-8.52605
▁Su	-8.52778
gi	-8.52796
▁üst	-8.52845
▁Büyük	-8.5288
▁şehir	-8.53066
▁millî	-8.53351
ul	-8.53374
M	-8.53392
▁onun	-8.53589
▁var	-8.53655
▁dizi	-8.53929
pa	-8.54342
ed	-8.54946
ov	-8.5516
ğ	-8.55552
▁iç	-8.55583
▁Be	-8.55743
▁L	-8.56005
siz	-8.56193
▁Partisi	-8.56323
co	-8.56414
▁Devletleri	-8.56419
▁almaktadır	-8.5699
▁itibaren	-8.57351
▁hakkında	-8.57427
▁Aynı	-8.57458
▁Ne	-8.57515
▁İtalya	-8.57623
▁Da	-8.57731
▁şarkı	-8.57751
▁yayın	-8.5801
▁çıkan	-8.58062
▁Ak	-8.58221
sinde	-8.58286
▁bin	-8.58295
N	-8.58295
▁Ba	-8.58439
▁İ	-8.58484
▁baş	-8.58879
inde	-8.5909
▁yanı	-8.59249
ko	-8.59508
kan	-8.59597
▁Ta	-8.59782
▁Te	-8.59871
L	-8.60176
▁Paşa	-8.60201
bo	-8.60468
▁çalıştı	-8.60587
▁iddia	-8.60749
▁Orta	-8.60801
▁sezonunda	-8.60831
ği	-8.60886
▁Co	-8.60908
sına	-8.61068
▁ek	-8.61203
oğlu	-8.61342
▁temsil	-8.6142
–	-8.61481
▁sonucu	-8.61667
sız	-8.61922
çe	-8.61941
ip	-8.62085
▁yaşında	-8.62351
▁ifade	-8.62388
▁döneminde	-8.62553
▁alır	-8.63071
ek	-8.63165
ry	-8.63185
W	-8.63547
▁geniş	-8.63634
U	-8.63642
ndaki	-8.63821
▁alt	-8.63859
sinin	-8.63982
▁Mo	-8.64066
▁W	-8.64141
▁olmayan	-8.64201
▁İmparatorluğu	-8.64554
▁sezon	-8.64605
▁Ra	-8.64772
▁Ko	-8.64838
ında	-8.64896
▁dünya	-8.65021
▁an	-8.65038
▁bilgi	-8.65046
▁ön	-8.65313
▁toplam	-8.65637
▁hizmet	-8.65797
▁Amerikalı	-8.658
▁Film	-8.65994
çı	-8.66086
▁Kupası	-8.66126
▁adını	-8.66229
▁oğlu	-8.66375
İ	-8.66463
▁To	-8.66645
ö	-8.66778
▁familyasına	-8.6712
▁yapımı	-8.67184
▁nüfus	-8.67187
▁çoğu	-8.67238
▁etmiştir	-8.67248
▁kalan	-8.67348
ktan	-8.67366
▁yapmıştır	-8.67497
fa	-8.67505
▁orta	-8.67534
▁tam	-8.67536
▁tür	-8.67604
ist	-8.67971
▁hareket	-8.68261
▁yapı	-8.6846
▁Bey	-8.68666
▁edilir	-8.68758
▁futbol	-8.68998
▁J	-8.69172
▁dışında	-8.69214
▁dönemde	-8.69271
▁Man	-8.69306
▁katıldı	-8.69322
I	-8.69591
▁dolayı	-8.69675
▁Bo	-8.69789
▁–	-8.69834
▁verilen	-8.69858
▁aldığı	-8.69918
▁askeri	-8.70377
bu	-8.70429
▁ama	-8.70527
ev	-8.70823
▁mücadele	-8.70854
sh	-8.70915
▁cinsidir	-8.7097
ze	-8.71105
▁Batı	-8.71141
▁güç	-8.71157
mesi	-8.71181
▁kaldı	-8.71247
ber	-8.71257
as	-8.71411
▁olur	-8.71699
ver	-8.71745
▁söz	-8.71754
▁Ali	-8.71949
erek	-8.72082
R	-8.72307
▁temel	-8.72454
▁Pa	-8.72472
dür	-8.7254
▁Ni	-8.72621
▁üçüncü	-8.72728
▁Lig	-8.72798
▁Di	-8.73051
ley	-8.73395
nü	-8.73731
▁Si	-8.73806
▁beş	-8.73965
maktadır	-8.74218
pe	-8.743
lük	-8.74547
▁doğdu	-8.74615
hi	-8.74716
▁gol	-8.74733
▁Do	-8.74905
▁Mi	-8.75137
▁çocuk	-8.75393
▁kullanılır	-8.75656
▁genç	-8.75746
▁para	-8.75761
▁televizyon	-8.75848
▁öldü	-8.76012
▁sahne	-8.76231
cu	-8.76265
▁dönem	-8.76398
▁Ödülü	-8.76595
▁Han	-8.76738
▁mahalledir	-8.76812
ına	-8.77091
▁Şarkı	-8.77121
tur	-8.77181
▁takımı	-8.77294
teki	-8.7731
▁York	-8.77557
leme	-8.77598
▁üyesi	-8.77973
▁yarı	-8.7817
▁yazar	-8.78182
▁göz	-8.78209
▁gerçek	-8.78268
▁filmi	-8.78497
▁m	-8.78606
▁Ho	-8.78771
▁Po	-8.78794
sının	-8.78796
▁ettiği	-8.78995
▁yılından	-8.79077
▁Vi	-8.79287
▁girdi	-8.79314
dığı	-8.79392
▁resmi	-8.79574
",	-8.79639
ad	-8.79739
am	-8.7978
▁sistemi	-8.79786
▁parti	-8.80005
▁saat	-8.80116
nün	-8.80193
▁Ligi	-8.80282
▁albüm	-8.80619
▁deniz	-8.807
▁başkanı	-8.80728
▁yıllarında	-8.80787
▁al	-8.80815
▁teknik	-8.8132
▁top	-8.81423
▁oyun	-8.81574
▁bulundu	-8.81677
▁sayıda	-8.82067
▁Anadolu	-8.82125
▁Ulusal	-8.82246
▁halk	-8.82466
▁ayrı	-8.82519
▁uluslararası	-8.82519
ster	-8.82538
▁kurulan	-8.8293
▁ö	-8.82936
▁itibarıyla	-8.82985
sen	-8.831
▁bütün	-8.83132
Y	-8.83214
▁düzenlenen	-8.83254
▁at	-8.83323
▁durum	-8.83414
iz	-8.83418
▁vardı	-8.83481
mer	-8.83497
▁bulunduğu	-8.83505
▁altı	-8.83657
▁John	-8.83661
▁sonraki	-8.83771
▁yaygın	-8.83782
▁So	-8.83935
ren	-8.84199
▁erkek	-8.84313
▁destek	-8.84667
▁Ri	-8.84831
▁Ro	-8.85093
▁yerel	-8.85105
▁siyasi	-8.85139
▁Sovyet	-8.85605
ça	-8.85648
▁ses	-8.85896
▁kız	-8.8593
▁Azerbaycan	-8.85982
▁sahibi	-8.86
▁beraber	-8.86238
▁idi	-8.86571
▁Ay	-8.86598
▁bilim	-8.86711
ör	-8.86752
▁He	-8.86771
▁ülke	-8.86783
▁San	-8.86841
▁ilan	-8.86854
▁Fa	-8.86904
sında	-8.8698
taki	-8.87128
▁ona	-8.87513
▁olabilir	-8.87571
ğı	-8.87615
ly	-8.8763
▁albümü	-8.87697
mektedir	-8.87727
▁transfer	-8.87798
leriyle	-8.87844
▁Ga	-8.87946
gu	-8.87989
ey	-8.87991
▁yine	-8.88121
▁Bunun	-8.88175
id	-8.8821
▁isimli	-8.88304
▁Mısır	-8.88429
▁Paris	-8.88543
tar	-8.88672
▁hemen	-8.88781
▁parçası	-8.88831
▁ayında	-8.889
ho	-8.89062
mek	-8.89169
ının	-8.89221
▁izin	-8.89235
▁etme	-8.89286
▁Devlet	-8.89534
yen	-8.89649
▁fakat	-8.897
▁oynadı	-8.89851
kar	-8.89905
▁konu	-8.89919
▁Afrika	-8.90061
▁metre	-8.90306
unu	-8.90344
▁sağ	-8.90428
wa	-8.90447
ot	-8.90552
ür	-8.90621
▁benzer	-8.90901
▁içerisinde	-8.90927
diği	-8.91094
▁değil	-8.91281
▁çift	-8.91424
▁An	-8.91542
▁parça	-8.91565
▁Uluslararası	-8.91726
▁futbolcudur	-8.91753
▁herhangi	-8.9177
▁yıllarda	-8.92023
(	-8.92206
▁burada	-8.92237
▁geçen	-8.92319
▁kardeşi	-8.92351
▁çalışma	-8.92412
land	-8.92451
▁İran	-8.92651
▁aday	-8.92798
▁çalışan	-8.92841
▁dil	-8.93076
abilir	-8.93144
▁Ke	-8.93249
larıyla	-8.93334
▁kat	-8.93339
▁Son	-8.93349
▁yardım	-8.93464
▁Bar	-8.93542
▁maçta	-8.9372
▁Sultan	-8.93764
▁grubu	-8.93903
▁güçlü	-8.93906
▁haline	-8.9398
▁yıllık	-8.93984
iye	-8.94083
ut	-8.94225
▁kontrol	-8.94235
▁Lo	-8.94355
▁tespit	-8.9453
▁sık	-8.94944
▁sosyal	-8.94998
▁anlamına	-8.95065
▁Z	-8.95178
▁günü	-8.95222
ım	-8.95239
▁biridir	-8.95243
ok	-8.95266
he	-8.95438
▁X	-8.95471
▁pek	-8.95492
▁köydür	-8.95647
▁hiçbir	-8.95793
▁uygun	-8.9582
▁konusunda	-8.96266
ül	-8.96419
ner	-8.96673
▁bitki	-8.96684
lanma	-8.96985
ru	-8.97111
▁forma	-8.9747
▁Halk	-8.9754
fi	-8.97597
▁ünlü	-8.97708
lanan	-8.97861
▁yaşayan	-8.98219
▁Kar	-8.98503
▁başarılı	-8.98518
▁In	-8.98586
lardır	-8.98705
▁sayı	-8.98722
van	-8.98765
▁Hu	-8.98895
ay	-8.98976
▁yanında	-8.98992
▁Du	-8.99037
▁No	-8.99067
▁Şampiyonası	-8.99209
▁seçildi	-8.99243
▁kızı	-8.99486
▁bölüm	-8.99511
▁geçti	-8.99589
▁As	-8.99655
▁ne	-8.99713
▁ortak	-8.9982
▁Yahudi	-8.99968
▁ismi	-9.00391
▁Bakanlığı	-9.00589
▁yana	-9.0065
▁sanat	-9.00708
▁mezun	-9.01031
▁Yunan	-9.0107
ng	-9.01143
▁Ve	-9.01243
▁madalya	-9.01427
▁Za	-9.01432
bir	-9.01523
▁Dr	-9.01542
▁İyi	-9.01562
▁yılına	-9.01715
ger	-9.02013
mar	-9.02519
ja	-9.02533
▁ara	-9.02622
▁amacıyla	-9.02692
tü	-9.0278
▁İslam	-9.02831
â	-9.03079
▁Fakültesi	-9.0313
▁yüzyılda	-9.03203
▁başına	-9.03203
▁başlayan	-9.03332
▁ki	-9.03453
▁bölge	-9.03728
▁şehrin	-9.03794
▁bile	-9.0384
▁babası	-9.03989
gan	-9.0402
▁sona	-9.04283
▁video	-9.04494
▁aile	-9.0455
▁ada	-9.04556
▁belediye	-9.0478
▁yalnızca	-9.04794
tal	-9.04902
▁Bazı	-9.04922
▁sinema	-9.05211
▁olma	-9.05217
ll	-9.05431
▁nedenle	-9.05437
let	-9.05488
▁İki	-9.05528
▁türüdür	-9.05592
dy	-9.05628
▁araştırma	-9.05703
idae	-9.05745
iş	-9.06136
▁önceki	-9.06169
maya	-9.06207
▁alanı	-9.06301
▁başında	-9.06376
▁şey	-9.06547
▁Har	-9.06578
kı	-9.067
▁bunun	-9.06756
je	-9.06758
kten	-9.06861
ladı	-9.07183
▁yayınlandı	-9.07441
▁sistem	-9.0745
▁oy	-9.07633
lerdir	-9.07636
▁Pe	-9.0764
ic	-9.07725
▁değildir	-9.07799
min	-9.07961
▁sonucunda	-9.08003
per	-9.08238
▁İkinci	-9.0833
▁oldukça	-9.08339
▁Parti	-9.08572
▁İspanya	-9.08648
▁yaş	-9.08662
▁kara	-9.08665
▁etmektedir	-9.08667
ku	-9.08722
▁yok	-9.08782
▁kısmı	-9.08825
▁ederek	-9.08914
▁dış	-9.08994
▁içeren	-9.09012
▁hafta	-9.09289
ie	-9.09354
▁kötü	-9.09393
▁St	-9.09509
▁yerleşim	-9.09567
ah	-9.09615
▁veren	-9.09648
▁Lu	-9.09651
▁Eski	-9.09853
yo	-9.10044
▁adet	-9.10082
izm	-9.10161
▁doğu	-9.10333
▁serbest	-9.10401
▁tamamen	-9.10469
▁meydana	-9.10584
▁Or	-9.10607
▁başlar	-9.1063
▁plan	-9.10749
▁Gu	-9.10926
▁Suriye	-9.11046
▁Başkanı	-9.11103
▁mahalle	-9.1123
▁merkez	-9.11259
▁edilmiş	-9.11398
ts	-9.11422
▁İsrail	-9.1143
▁Pi	-9.1147
▁başlamıştır	-9.11624
▁yayınlanan	-9.11693
▁yönetim	-9.11717
▁yardımcı	-9.11953
▁Ku	-9.1209
▁derece	-9.12227
▁Japonya	-9.12323
liğe	-9.12379
▁Diğer	-9.1238
mon	-9.12387
▁profesyonel	-9.12439
▁Fakat	-9.12504
▁kan	-9.12588
▁MÖ	-9.12624
▁enerji	-9.12686
▁din	-9.12851
▁final	-9.12853
▁şeklinde	-9.13007
▁verildi	-9.13063
▁yüzyılın	-9.13075
ünü	-9.13086
▁re	-9.13128
ebilir	-9.13173
▁şu	-9.13195
les	-9.13273
▁kuruldu	-9.13522
▁Japon	-9.13639
▁Bi	-9.1399
ıp	-9.14014
▁kuzey	-9.14034
layan	-9.14051
▁ağır	-9.14084
▁ülkenin	-9.14182
▁Ge	-9.14224
▁döndü	-9.14239
▁sonrasında	-9.14397
acak	-9.14686
▁Car	-9.14841
▁hale	-9.14927
▁İngilizce	-9.15033
san	-9.15084
▁yoğun	-9.15267
▁iken	-9.15269
▁Londra	-9.1535
▁kitap	-9.15373
▁sezonu	-9.15751
▁düşük	-9.15824
▁olsa	-9.1584
▁bilinir	-9.15883
kları	-9.16154
lığa	-9.16318
▁piyasaya	-9.16382
▁yapıldı	-9.16458
▁üzerinden	-9.16546
har	-9.167
tra	-9.16773
lay	-9.16905
▁maç	-9.16918
▁İzmir	-9.17012
▁bağımsız	-9.17263
▁birinci	-9.1729
lin	-9.17311
▁ulusal	-9.17499
ss	-9.17667
▁modern	-9.17731
▁sefer	-9.17744
▁tarihli	-9.17748
ji	-9.17984
ham	-9.18057
▁İtalyan	-9.18099
▁taş	-9.18336
▁yönelik	-9.184
▁seçim	-9.18431
▁Krallık	-9.18482
▁Ya	-9.18539
▁üniversite	-9.18703
tür	-9.18746
po	-9.18764
lak	-9.18766
lanır	-9.18783
▁sayısı	-9.18845
▁saldırı	-9.19053
▁hızlı	-9.19124
▁Öz	-9.19155
▁Arap	-9.1919
▁Asya	-9.19206
▁Ordu	-9.19347
lenen	-9.19468
ecek	-9.19727
▁Nehri	-9.1974
▁Bizans	-9.19826
▁silah	-9.20025
ser	-9.20083
▁Ana	-9.20233
▁verir	-9.20386
▁ekonomik	-9.20489
ret	-9.20524
▁hedef	-9.20703
▁Polonya	-9.20707
▁ordusu	-9.20707
▁Fi	-9.20742
▁dili	-9.21039
X	-9.21156
▁Jo	-9.21168
▁sınır	-9.2124
▁yönünde	-9.21368
▁ödül	-9.21397
▁popüler	-9.21599
▁tip	-9.21646
▁bölgesinde	-9.21658
▁geç	-9.21669
▁yan	-9.21678
▁Hristiyan	-9.21873
luğu	-9.21903
ap	-9.22041
▁Yüksek	-9.22143
tt	-9.22601
▁şarkıcı	-9.22679
▁alarak	-9.22798
▁üye	-9.22844
▁söyledi	-9.2298
lanmış	-9.23134
▁to	-9.23257
▁yazı	-9.2337
▁suç	-9.23401
ova	-9.2345
▁anda	-9.23593
▁batı	-9.23735
▁bölümü	-9.23767
tor	-9.23835
▁lig	-9.23867
chi	-9.23959
▁cm	-9.23964
▁Mar	-9.24004
▁spor	-9.24039
unun	-9.24049
▁kurdu	-9.24063
şi	-9.24064
em	-9.24169
lat	-9.24259
om	-9.24308
▁kendisine	-9.24337
▁tarih	-9.24726
▁başarı	-9.24728
▁Go	-9.24914
▁ileri	-9.2496
▁altın	-9.24985
▁doğal	-9.25014
▁Mu	-9.25024
▁başkenti	-9.25053
op	-9.25097
ard	-9.25132
ıl	-9.25149
▁yüz	-9.25151
▁verdiği	-9.25322
▁Can	-9.25328
▁satın	-9.25532
▁sınıf	-9.25637
sta	-9.25655
▁yarış	-9.25663
▁olmasına	-9.25811
▁asker	-9.25837
pp	-9.25865
tz	-9.25919
vo	-9.25994
▁Ce	-9.26163
▁oluşur	-9.2619
▁Ye	-9.26232
▁maçında	-9.26329
▁tiyatro	-9.26401
▁içerir	-9.26519
▁Pro	-9.2657
▁öne	-9.2673
▁bilgisayar	-9.26733
▁der	-9.26753
▁ilgi	-9.26869
▁Sovyetler	-9.2692
▁beyaz	-9.27019
sk	-9.2703
▁zorunda	-9.27105
▁alanında	-9.27145
▁et	-9.27218
▁yasa	-9.27239
▁&	-9.27247
▁alma	-9.27265
ius	-9.27288
eli	-9.27323
lanması	-9.27367
eri	-9.27426
▁etki	-9.27532
▁kariyerine	-9.27533
inden	-9.27564
▁eş	-9.27573
▁Gi	-9.27717
▁arkadaşı	-9.27927
▁cinsine	-9.27997
▁Avusturya	-9.28018
▁Merkezi	-9.28204
ral	-9.28207
▁On	-9.28233
▁Y	-9.28257
landı	-9.2838
▁kazanan	-9.28382
liğini	-9.2847
▁eşi	-9.28477
che	-9.28669
▁yapmış	-9.28674
▁yapılmıştır	-9.28705
▁eyaletinde	-9.29191
▁Ti	-9.293
ty	-9.2943
fe	-9.29543
fer	-9.29606
▁yaşam	-9.29677
▁Şehir	-9.2974
▁Mü	-9.29823
ış	-9.29861
▁hükûmet	-9.29893
▁işgal	-9.29946
▁giriş	-9.30098
▁uzay	-9.30311
köy	-9.30385
▁Ukrayna	-9.30408
▁Örneğin	-9.30408
▁ince	-9.30462
▁dünyanın	-9.30578
▁roman	-9.3065
▁yaz	-9.30674
lanmıştır	-9.30709
ılması	-9.30767
▁göç	-9.30856
ker	-9.30939
▁çevre	-9.30991
▁Futbol	-9.31034
▁halinde	-9.31071
▁Hi	-9.31078
▁Kurulu	-9.31205
▁Ju	-9.31225
▁veri	-9.31382
▁isim	-9.31514
▁çalışmaları	-9.31566
▁şarkısı	-9.31684
▁uygulama	-9.31823
▁sol	-9.31831
▁çizgi	-9.31853
▁Ab	-9.31855
▁ziyaret	-9.31919
▁kaynak	-9.31946
▁müziği	-9.31955
▁Mustafa	-9.32121
▁yıldız	-9.32341
up	-9.3236
▁okul	-9.32399
▁dair	-9.3242
▁Bununla	-9.32438
yum	-9.32452
▁zor	-9.32457
▁maçı	-9.32523
▁kitabı	-9.32536
▁değer	-9.3257
▁canlı	-9.32688
uk	-9.32717
▁Ser	-9.32803
▁kurulmuştur	-9.32817
▁dikkat	-9.32856
hu	-9.33022
и	-9.33053
lüğü	-9.33061
gar	-9.33171
▁annesi	-9.33349
▁olmuş	-9.33523
▁güney	-9.33654
▁/	-9.33661
▁yani	-9.3374
▁Enstitüsü	-9.33775
ağı	-9.33857
▁proje	-9.33873
▁Sch	-9.33931
▁mü	-9.33932
▁belirli	-9.33992
var	-9.34113
▁kişinin	-9.3424
▁karşısında	-9.34301
ban	-9.34343
mp	-9.34391
▁model	-9.34423
▁yazdı	-9.34519
kü	-9.34688
şe	-9.3477
lenir	-9.34775
á	-9.34799
▁p	-9.34848
▁TV	-9.34903
▁türü	-9.34924
so	-9.3496
▁Ç	-9.35162
▁kent	-9.35223
ez	-9.3527
uz	-9.35286
iyle	-9.35312
lenmiş	-9.35344
can	-9.35369
▁şirketi	-9.35378
▁Fe	-9.354
▁Deniz	-9.35455
az	-9.35525
bar	-9.35538
▁sanatçı	-9.35671
▁artık	-9.35693
yon	-9.35702
▁ölüm	-9.35756
▁İl	-9.35767
▁Ordusu	-9.35801
▁sonrası	-9.3586
▁kon	-9.3595
▁Merkez	-9.35999
muş	-9.3601
▁doğrudan	-9.36027
▁polis	-9.3609
▁Müslüman	-9.36122
▁arka	-9.36305
zo	-9.36444
▁milletvekili	-9.36479
▁defa	-9.36496
▁tahmin	-9.36606
▁ölçüde	-9.36705
▁Kore	-9.36723
nik	-9.36739
ab	-9.36787
▁etkisi	-9.36799
don	-9.36833
ından	-9.36863
met	-9.36937
miz	-9.36982
▁ateş	-9.37018
▁kay	-9.3705
▁uzak	-9.37106
▁şehri	-9.37185
▁sınırları	-9.37234
▁sürekli	-9.37278
▁takip	-9.37301
▁Avustralya	-9.37302
▁Tu	-9.37331
▁geleneksel	-9.37354
▁Yunanistan	-9.37434
▁imza	-9.3746
kin	-9.37469
▁tipi	-9.37517
▁bunu	-9.37615
▁Robert	-9.37634
▁puan	-9.37712
▁üzerindeki	-9.3783
▁tarihleri	-9.37929
▁Ben	-9.37961
▁üyeleri	-9.37976
▁Va	-9.3799
▁Berlin	-9.38008
▁çalışmalar	-9.38009
а	-9.38028
▁Am	-9.3811
▁konuşma	-9.38233
▁arası	-9.38313
▁adına	-9.38368
▁yazarı	-9.38573
▁Grup	-9.38578
▁Kuvvetleri	-9.38596
suz	-9.38658
▁Tur	-9.38877
▁William	-9.38913
▁geçirdi	-9.39049
▁gece	-9.39126
▁Kıbrıs	-9.39196
▁do	-9.39308
▁liste	-9.39313
ers	-9.39331
▁Kan	-9.39408
▁etmeye	-9.39467
▁Altın	-9.39475
▁geçmektedir	-9.39765
sıyla	-9.39988
Ma	-9.39995
▁ilçesinde	-9.40264
▁Hava	-9.40294
▁çocuğu	-9.40349
▁Hindistan	-9.40377
▁Ol	-9.40453
▁di	-9.40519
▁çünkü	-9.40531
▁kalma	-9.40541
lendi	-9.40633
▁savunma	-9.40736
▁Devleti	-9.40761
▁III	-9.40836
dü	-9.40864
▁Kanada	-9.40928
▁yüzyıl	-9.40934
▁Ama	-9.40939
▁gözlem	-9.40958
▁saha	-9.41075
▁Buna	-9.41078
▁mevcut	-9.41115
▁alındı	-9.41205
▁Ja	-9.41232
▁dünyaya	-9.41233
Z	-9.41243
▁kendini	-9.41247
▁kayıtlarında	-9.41254
▁haber	-9.41444
▁açıkladı	-9.41473
▁fark	-9.41483
kleri	-9.415
▁Belediye	-9.41595
▁yapmak	-9.41642
▁stüdyo	-9.41642
▁şirket	-9.41661
pi	-9.417
▁edilmektedir	-9.41712
▁kültür	-9.41719
▁Müzik	-9.419
▁İsveç	-9.41909
▁Mehmet	-9.4195
▁ordu	-9.41992
▁yedi	-9.42121
ff	-9.42142
▁üretim	-9.42245
▁Mer	-9.42248
▁zengin	-9.42252
od	-9.42334
ment	-9.42452
▁Kur	-9.42488
ac	-9.42502
tin	-9.4257
▁hazır	-9.4258
▁katı	-9.42752
▁kar	-9.42754
▁yazdığı	-9.42855
▁baskı	-9.42891
ian	-9.42962
lenmesi	-9.43022
▁sayesinde	-9.43031
▁kendisi	-9.43093
▁Hollanda	-9.43134
▁diye	-9.43172
▁oyunu	-9.4318
▁günümüzde	-9.43212
▁Okulu	-9.43236
▁Türkçe	-9.43327
Ş	-9.43449
net	-9.43457
▁metal	-9.43483
▁so	-9.43501
▁lisans	-9.43742
▁adında	-9.43788
▁Per	-9.43834
ron	-9.43882
▁yılının	-9.43894
▁kişilik	-9.4391
▁ortalama	-9.43943
ski	-9.43958
ang	-9.44106
▁Köyün	-9.44164
▁Con	-9.4425
▁hak	-9.44376
▁(),	-9.4449
▁yolu	-9.44516
▁altına	-9.44543
nd	-9.44594
ası	-9.44634
▁dizisi	-9.44716
ktadır	-9.44717
laşma	-9.44723
▁kaynağı	-9.44805
▁seri	-9.44814
▁Ze	-9.4488
▁Mor	-9.44959
▁görevi	-9.4496
▁Fenerbahçe	-9.44966
▁Kızıl	-9.44987
▁bas	-9.45022
▁yayınladı	-9.4507
▁Tek	-9.45098
nce	-9.45153
▁gitti	-9.45153
The	-9.45496
▁Bölgesi	-9.45543
bel	-9.45692
▁James	-9.45753
▁yoluyla	-9.45935
▁etkili	-9.46043
▁Bur	-9.4608
▁Muhammed	-9.46098
lam	-9.4626
▁Irak	-9.463
▁örnek	-9.463
▁Gürcistan	-9.4633
▁Ver	-9.46355
▁gösterir	-9.46365
J	-9.46561
dar	-9.46729
▁sağlar	-9.46849
▁oranı	-9.46849
▁erken	-9.46998
▁Süper	-9.4709
▁idari	-9.47212
▁Yaz	-9.4726
▁Van	-9.47287
▁Cor	-9.47363
▁ak	-9.47391
▁attı	-9.47422
▁terk	-9.47531
▁Başkanlığı	-9.47541
▁Burada	-9.47568
▁kulüp	-9.47669
▁single	-9.4767
▁Ru	-9.4767
▁Ermeni	-9.47686
ft	-9.47741
▁Cha	-9.47748
▁madde	-9.47782
▁Baş	-9.47812
▁sonuç	-9.47898
▁olmadığı	-9.48
▁oynanan	-9.48122
▁kazanmıştır	-9.48136
ant	-9.48163
una	-9.48205
▁as	-9.4833
▁konusu	-9.48353
ana	-9.48363
leşme	-9.48418
▁yabancı	-9.48543
▁gösteren	-9.48559
▁sebep	-9.48564
▁normal	-9.48661
▁dini	-9.48706
▁kurulmuş	-9.48715
ici	-9.48799
▁Cumhuriyet	-9.48824
▁kullanarak	-9.48879
▁Eğitim	-9.48882
▁gücü	-9.49108
ucu	-9.49112
▁olay	-9.49139
▁tamamladı	-9.49148
▁Windows	-9.49283
▁toplum	-9.49354
▁Wi	-9.49471
▁hiç	-9.49556
▁ad	-9.49574
▁Sal	-9.49644
eti	-9.49662
▁dördüncü	-9.49686
yken	-9.49729
▁ila	-9.49734
▁Bakanı	-9.49787
we	-9.49811
▁taşıyan	-9.49936
▁Spor	-9.5004
▁Gar	-9.50057
▁Sanat	-9.50066
▁bölgede	-9.50161
▁Ki	-9.50164
▁Kral	-9.50181
▁engel	-9.50286
▁bağ	-9.50287
▁karakter	-9.50303
▁yoktur	-9.50391
unda	-9.50512
▁yapma	-9.50537
ung	-9.50613
kal	-9.50758
▁yerini	-9.50817
▁kendisini	-9.50963
▁gemi	-9.5101
▁Wa	-9.51028
▁yara	-9.511
ven	-9.51109
▁futbolcu	-9.51142
▁gördü	-9.51148
▁sivil	-9.51161
▁ticaret	-9.51166
▁me	-9.51195
▁Fer	-9.51208
▁Nazi	-9.51233
▁kentinde	-9.51281
oz	-9.51303
▁yayımlanan	-9.51336
ıcı	-9.5134
▁bölgesi	-9.5136
▁işaret	-9.51391
bey	-9.51398
▁Bay	-9.51477
ong	-9.51577
▁aktif	-9.51613
▁uçak	-9.51686
▁anlaşma	-9.51706
▁Krallığı	-9.51725
▁edilmesi	-9.51839
iyet	-9.51935
▁sözleşme	-9.52042
▁Ter	-9.52116
ktedir	-9.52148
▁yük	-9.52149
tes	-9.52181
din	-9.52198
lardı	-9.52212
▁David	-9.52259
▁Birinci	-9.52294
▁Ber	-9.52316
▁At	-9.52325
▁sayımına	-9.52357
▁dışı	-9.52372
▁verme	-9.52414
▁tercih	-9.52472
▁kurulu	-9.52475
▁Tanrı	-9.52507
▁finalde	-9.52593
▁sene	-9.52593
▁ekibi	-9.52807
▁George	-9.52849
▁faaliyet	-9.52853
▁yönetmen	-9.52957
▁Oyuncu	-9.53006
▁program	-9.53224
▁şiir	-9.53297
üm	-9.53382
▁kazan	-9.53493
▁ışık	-9.53546
Ç	-9.53574
tis	-9.53609
▁hasta	-9.53611
▁hayatını	-9.53615
▁başlarında	-9.53629
▁gazete	-9.53638
▁Savaş	-9.53639
ık	-9.53714
▁şehirdir	-9.5372
▁radyo	-9.5385
▁kilise	-9.53921
q	-9.53933
▁süren	-9.54047
▁mi	-9.54096
▁kuvvetleri	-9.54199
▁çapında	-9.54217
▁gelmiştir	-9.54226
▁Paul	-9.54227
▁Meclisi	-9.54358
▁Böylece	-9.54393
▁etmiş	-9.54495
▁kas	-9.54522
oloji	-9.5457
▁yaka	-9.54613
▁Oyun	-9.5464
siyle	-9.54898
ğu	-9.54913
▁NGC	-9.54919
о	-9.54978
▁açtı	-9.55017
▁Ara	-9.55062
ünün	-9.55091
▁ili	-9.55253
▁Kemal	-9.55278
▁siyasetçi	-9.55288
muştur	-9.55315
aj	-9.55332
▁grubun	-9.55334
▁performans	-9.55372
▁kaybetti	-9.55431
▁test	-9.55501
▁filmin	-9.55502
▁Yarışması	-9.55523
▁açısından	-9.55587
▁kökenli	-9.55676
▁d	-9.55692
▁kırmızı	-9.5573
▁ayrıldı	-9.55861
▁yeri	-9.55872
▁teslim	-9.55879
▁uç	-9.55922
▁şehrinde	-9.55947
▁kanıt	-9.55978
▁özellikleri	-9.56016
ğını	-9.56038
▁bölümünde	-9.56042
▁motor	-9.56058
▁neredeyse	-9.5612
ion	-9.56214
▁eğitimi	-9.56233
▁b	-9.56296
▁ağ	-9.56452
io	-9.56504
sch	-9.56542
tro	-9.56552
ıldı	-9.5657
▁galaksidir	-9.56757
▁koruma	-9.57006
▁yaşadığı	-9.57006
▁Lisesi	-9.57012
hat	-9.57068
▁amacı	-9.57133
▁toprak	-9.57139
▁ulaştı	-9.57182
rak	-9.57269
▁Eurovision	-9.57336
▁çıkmıştır	-9.57392
▁yapılır	-9.57441
▁gaz	-9.5746
▁hala	-9.57549
sinden	-9.57553
kullanılmaktadır	-9.57561
▁üretimi	-9.57588
▁Galatasaray	-9.57596
iyor	-9.57813
▁orijinal	-9.57826
▁başta	-9.57844
▁Moskova	-9.57856
wi	-9.57865
cü	-9.57889
lenmiştir	-9.57932
▁dağ	-9.58127
▁kullanımı	-9.58153
Ka	-9.58156
▁lideri	-9.58173
Ö	-9.58183
las	-9.58225
▁araya	-9.58444
lis	-9.5846
▁sırasıyla	-9.58474
ther	-9.58478
▁yapılmış	-9.58599
▁eyalet	-9.58622
Ha	-9.58662
res	-9.58691
▁oluşturur	-9.58721
▁bazen	-9.58729
▁durumda	-9.5873
ılan	-9.58741
tif	-9.58742
▁resmî	-9.58749
▁fotoğraf	-9.58753
▁kal	-9.58808
▁kararı	-9.58857
▁yavaş	-9.59
▁dalga	-9.5904
▁Sta	-9.59058
meye	-9.59124
▁İç	-9.59199
▁hukuk	-9.59239
▁ilinde	-9.5926
eceği	-9.59287
ize	-9.59438
▁açıklama	-9.59513
▁kullanılmıştır	-9.59536
▁Der	-9.59584
▁düşman	-9.59602
▁Mac	-9.59627
▁nasıl	-9.59655
lığını	-9.59685
▁nokta	-9.59718
▁taşımaktadır	-9.59769
▁yapmaktadır	-9.59777
▁kayıt	-9.59945
ō	-9.59984
▁Michael	-9.60079
▁Kat	-9.60094
▁Kal	-9.60178
▁Gra	-9.60254
▁görülür	-9.60283
▁atandı	-9.60285
▁yönetimi	-9.60338
mez	-9.6041
▁yılındaki	-9.60414
▁böylece	-9.60424
▁Çağ	-9.60424
▁siyah	-9.60521
▁Akademisi	-9.60538
▁Ödülleri	-9.60731
▁aracılığıyla	-9.60748
▁cinstir	-9.6075
ä	-9.60799
▁yükseldi	-9.60845
▁Derneği	-9.60851
sar	-9.60943
▁takımında	-9.60956
▁araç	-9.61002
▁Tra	-9.61031
▁evlendi	-9.61095
by	-9.61128
başı	-9.61148
shi	-9.61201
▁bulunmuştur	-9.61211
lığın	-9.61219
▁onları	-9.61372
ig	-9.61373
ağa	-9.61424
▁alınan	-9.61429
]	-9.61439
▁pozisyonunda	-9.61509
▁bilimsel	-9.61642
▁Bel	-9.61754
▁hükûmeti	-9.6192
▁etmesi	-9.61972
▁f	-9.61988
şa	-9.62008
ny	-9.62129
▁UEFA	-9.62174
▁insanlar	-9.62181
▁eser	-9.62205
▁pazar	-9.62219
▁gerekli	-9.62281
▁Şehrin	-9.6237
▁ko	-9.62429
▁hikâye	-9.62436
imi	-9.62448
▁Ek	-9.6247
▁yüzey	-9.62473
▁verilmiştir	-9.62509
▁Bölümü	-9.62553
Bu	-9.62564
?	-9.62595
▁hücre	-9.62689
▁Güneş	-9.62719
ris	-9.62771
▁tarım	-9.62971
laş	-9.63003
▁Yu	-9.63022
▁Ö	-9.63057
▁sağlamak	-9.63162
▁kesin	-9.63181
▁hız	-9.63351
ket	-9.63403
▁çoğunlukla	-9.63562
ıyla	-9.63583
▁Bor	-9.63591
▁giren	-9.63601
▁adam	-9.63604
▁sağlayan	-9.63668
off	-9.63715
mal	-9.63776
▁Kadın	-9.63907
▁fa	-9.63944
▁eseri	-9.63961
▁Ev	-9.63961
bil	-9.64001
▁almak	-9.64104
▁oyuncusu	-9.64113
lek	-9.64135
layıcı	-9.64145
nes	-9.64152
▁çalışması	-9.64198
▁şair	-9.64218
▁Beyaz	-9.64219
sü	-9.64233
▁kale	-9.64238
▁düşünce	-9.64247
Ü	-9.64287
▁for	-9.64374
▁mu	-9.64411
▁medya	-9.64438
▁öğrenci	-9.64438
▁üretilen	-9.64461
▁arazi	-9.6449
yat	-9.64491
▁Tüm	-9.6451
▁Ahmet	-9.64551
▁Günümüzde	-9.64557
lenme	-9.6457
▁Ci	-9.6459
▁dakika	-9.64621
zu	-9.64623
Sa	-9.64668
▁Albüm	-9.64691
▁özelliği	-9.64706
▁Festivali	-9.6474
▁tedavi	-9.64771
ılmış	-9.64778
▁Bra	-9.64964
ıyor	-9.65072
▁Britanya	-9.65118
▁takımına	-9.65147
▁Bunlar	-9.65211
▁sak	-9.65241
▁görevini	-9.65319
▁Küçük	-9.65345
▁sekiz	-9.65415
▁başkan	-9.65462
▁devre	-9.6548
liğin	-9.655
ılma	-9.65562
▁Es	-9.65707
▁av	-9.65742
▁Los	-9.65749
ince	-9.65802
▁Chi	-9.65853
▁söyler	-9.65908
▁Gül	-9.65911
▁ilişki	-9.65938
asyon	-9.66013
▁gelmektedir	-9.66047
▁Fo	-9.66222
▁bölgesine	-9.66239
▁Dar	-9.66258
com	-9.66305
gel	-9.66313
▁listesinde	-9.6634
if	-9.66545
▁örümcek	-9.6657
▁sürdü	-9.6659
▁büyü	-9.66658
▁Gal	-9.66689
▁dergi	-9.66754
▁Muharebesi	-9.66817
▁General	-9.66925
ina	-9.66928
▁inç	-9.66959
yordu	-9.6701
▁şekil	-9.67026
▁mevcuttur	-9.67095
▁oynadığı	-9.67385
▁Kilisesi	-9.67477
▁Bal	-9.67565
▁gerek	-9.67576
kon	-9.67622
ud	-9.67663
yor	-9.67682
▁ticari	-9.67734
▁modeli	-9.67815
ks	-9.67819
▁cami	-9.67874
▁düzen	-9.67981
▁Profesyonel	-9.6809
tion	-9.68237
▁Kültür	-9.68239
cılık	-9.68328
▁Gürcü	-9.6833
gin	-9.68347
▁takımyıldızı	-9.6838
zar	-9.68394
û	-9.68442
▁durumu	-9.68454
▁insanların	-9.68461
▁İspanyol	-9.68531
▁göstermektedir	-9.6861
idir	-9.68657
▁dönemin	-9.68739
val	-9.68742
▁Star	-9.68879
▁pro	-9.69004
е	-9.69049
▁başarısız	-9.69073
▁hattı	-9.6913
▁vermiştir	-9.69194
masına	-9.69211
ire	-9.69216
▁ikisi	-9.69329
mıştı	-9.69352
car	-9.6942
▁taraf	-9.69618
▁art	-9.69635
Ba	-9.69639
▁hatta	-9.69652
▁çatışma	-9.69673
ara	-9.69767
acağı	-9.69817
▁taşı	-9.69929
▁Üç	-9.69978
▁yayımlandı	-9.70009
▁civarında	-9.70017
▁Av	-9.70025
▁yasak	-9.70026
▁İş	-9.7028
▁aracı	-9.70282
kta	-9.70287
mu	-9.70354
▁önünde	-9.70391
▁edilme	-9.70484
▁Hukuk	-9.70485
▁mal	-9.70503
▁ailesi	-9.70554
▁birlikleri	-9.70627
▁aktar	-9.707
▁Ad	-9.70745
▁sergi	-9.70871
▁Gün	-9.70933
▁konser	-9.70934
▁geçiş	-9.70987
▁Tar	-9.70991
▁Özellikle	-9.71042
▁yüzden	-9.71229
tığı	-9.71265
▁güvenlik	-9.71267
ılır	-9.71271
lon	-9.71325
▁yapısı	-9.71352
▁tasarım	-9.71358
▁Charles	-9.71364
▁kullanır	-9.71392
▁belirtti	-9.71393
▁elektrik	-9.714
▁programı	-9.71403
ow	-9.71444
▁dönüş	-9.71523
▁pi	-9.71526
▁ha	-9.71537
▁takımın	-9.71675
▁örgüt	-9.71755
▁denir	-9.7176
▁renk	-9.71792
▁önde	-9.718
leyen	-9.71833
▁My	-9.71838
▁Brezilya	-9.71845
▁Konseyi	-9.7189
▁teknoloji	-9.71892
yet	-9.71893
▁Bölge	-9.71894
nca	-9.719
▁öncesi	-9.71975
▁sonlarında	-9.71981
▁olduğuna	-9.72054
▁ekran	-9.72054
▁işçi	-9.7208
▁doğum	-9.72209
dığını	-9.72357
▁aşırı	-9.72474
▁zarar	-9.72503
▁sağladı	-9.72506
▁gizli	-9.72541
▁günlük	-9.72787
▁sahipliği	-9.72817
que	-9.72835
▁içindeki	-9.729
▁yarışma	-9.72972
▁İn	-9.73003
▁kolay	-9.73023
rek	-9.73062
▁gider	-9.73104
▁sağlık	-9.73194
▁Yer	-9.732
▁Şah	-9.73218
▁Müzesi	-9.73271
▁cinsel	-9.73328
▁çaplı	-9.73356
▁olmadığını	-9.73386
▁Ham	-9.73401
leştirme	-9.7351
▁kanun	-9.73571
▁dönemi	-9.73593
▁ciddi	-9.73655
▁tane	-9.73682
▁Şa	-9.73752
▁bar	-9.73785
hane	-9.73848
▁tanrı	-9.73878
▁kol	-9.73965
")	-9.74006
▁Kaliforniya	-9.74016
▁yorum	-9.74039
▁Akdeniz	-9.74039
▁taşındı	-9.74039
▁gösteri	-9.74042
her	-9.74165
▁astronom	-9.74174
▁sarı	-9.74202
▁gösterdi	-9.74231
▁esas	-9.74238
gü	-9.74293
ril	-9.7436
▁istifa	-9.7436
diğini	-9.74399
▁İsviçre	-9.74468
▁kuzeyinde	-9.74476
kov	-9.74496
▁getirdi	-9.74588
bat	-9.74616
lendirme	-9.74721
▁Th	-9.74781
▁Pan	-9.74894
sidir	-9.74976
▁Peter	-9.75054
▁Bursa	-9.75122
▁talep	-9.75143
!	-9.75205
▁İnsan	-9.7532
▁kıyı	-9.75335
zan	-9.7535
▁zayıf	-9.7538
kül	-9.75409
▁Araştırma	-9.75497
▁sabit	-9.7551
▁tur	-9.75528
▁iletişim	-9.75545
▁Dan	-9.7558
bol	-9.75586
▁bazıları	-9.75614
▁Tri	-9.75688
▁g	-9.75691
▁Je	-9.75692
gg	-9.75765
▁oluşturan	-9.75785
▁Olimpiyatları	-9.75787
▁karşılık	-9.75882
▁çalış	-9.75908
▁bilinmektedir	-9.75919
▁keşfedilmiştir	-9.75936
▁köyü	-9.76002
ıdır	-9.76025
▁sert	-9.76051
▁sayılı	-9.76128
▁ilişkin	-9.76155
sin	-9.76196
▁klasik	-9.76244
▁Var	-9.76305
▁Grand	-9.76307
▁hakkı	-9.76307
▁kapı	-9.7632
▁City	-9.76515
▁doğa	-9.76584
▁olacak	-9.76652
▁ülkede	-9.76667
▁noktası	-9.76677
▁seçimlerinde	-9.76694
▁sebebiyle	-9.76708
yer	-9.76711
▁buna	-9.76744
▁emekli	-9.76761
▁ısı	-9.76766
tus	-9.76915
▁giydi	-9.76915
▁almış	-9.76997
yar	-9.77035
▁barış	-9.77129
kes	-9.77165
▁web	-9.77215
ram	-9.77252
▁sanayi	-9.77322
▁standart	-9.77329
▁yerli	-9.77393
cilik	-9.77543
hal	-9.77581
▁başardı	-9.77591
▁Grubu	-9.77593
▁Hitler	-9.7765
▁bina	-9.77749
sından	-9.77772
▁Belediyesi	-9.77835
▁kasaba	-9.77836
▁yapmaya	-9.77865
▁orada	-9.7793
▁kültürel	-9.77951
lılar	-9.78087
▁basit	-9.78128
sey	-9.78166
▁geçmiş	-9.78188
▁Beşiktaş	-9.7824
▁yıllar	-9.7825
▁Hal	-9.78261
▁Portekiz	-9.78269
▁dolar	-9.78324
▁önceleri	-9.78376
▁yemek	-9.7841
▁oluştuğu	-9.78504
▁ölümünden	-9.78572
hr	-9.78586
▁kulübünde	-9.78587
▁erdi	-9.78613
▁halka	-9.78656
mann	-9.78741
ct	-9.78781
sis	-9.78901
▁ediyor	-9.78928
+	-9.78971
▁önem	-9.78982
▁ölmüştür	-9.79056
▁kişiler	-9.79057
rit	-9.79095
▁kralı	-9.79119
bay	-9.7919
▁romanı	-9.79237
ydu	-9.79286
▁çalışır	-9.79316
▁Ger	-9.79344
mız	-9.79352
▁çalışmaya	-9.79469
▁dik	-9.79579
ika	-9.79623
▁Çok	-9.79649
tepe	-9.79756
▁milyar	-9.79785
▁kontrolü	-9.79804
rken	-9.79824
▁Kralı	-9.79864
cılar	-9.79889
▁filminde	-9.79992
▁görüntü	-9.80036
mb	-9.80052
▁Sam	-9.80087
▁Bre	-9.80095
vin	-9.80205
▁kuruluşu	-9.80233
▁İrlanda	-9.80301
mus	-9.80315
mat	-9.80357
▁antik	-9.80364
lem	-9.80386
üs	-9.804
mişti	-9.80417
▁Başkan	-9.80433
▁Nu	-9.80509
▁takımının	-9.80512
▁kilometre	-9.80528
ans	-9.80529
▁getirildi	-9.8053
▁merkezli	-9.80564
log	-9.80582
▁Katolik	-9.80585
ria	-9.80619
▁statüsü	-9.80622
jo	-9.80643
▁For	-9.80674
▁geçer	-9.80678
masını	-9.80761
est	-9.80846
▁adlandırılan	-9.80855
▁filmde	-9.80881
ep	-9.80917
ent	-9.80951
▁kullanım	-9.80966
▁kapsamında	-9.81013
▁Ada	-9.81039
▁karakteri	-9.81112
▁Erzurum	-9.81146
▁Kon	-9.81169
▁varlığı	-9.81188
▁Pre	-9.81196
▁güneyinde	-9.81293
▁bak	-9.81324
▁Sha	-9.81366
▁Mal	-9.81374
▁tarzı	-9.81381
taş	-9.81432
▁öğretim	-9.81484
ation	-9.81526
▁kamu	-9.81581
▁Uzun	-9.81614
▁belli	-9.81642
▁kaynakları	-9.81652
▁nüfusunun	-9.8172
▁gazeteci	-9.81727
zer	-9.81753
şu	-9.81832
▁World	-9.81846
▁görüş	-9.8191
▁arkadaşları	-9.81924
▁oda	-9.81924
▁iline	-9.81931
gon	-9.81933
▁resim	-9.81951
▁fiziksel	-9.81965
▁ayak	-9.81982
cık	-9.81989
▁hafif	-9.82016
▁teorisi	-9.82041
▁kullanıldı	-9.82073
▁FIFA	-9.8212
ğini	-9.8212
par	-9.82165
▁Men	-9.82176
▁görülen	-9.82434
▁von	-9.82478
▁Sosyal	-9.82658
▁eşit	-9.8269
▁("	-9.82725
olog	-9.82737
▁yerde	-9.82802
▁kullanıcı	-9.82842
▁telefon	-9.82899
ou	-9.82909
▁çıkış	-9.82928
▁sistemleri	-9.83006
▁Don	-9.83166
▁yazılım	-9.83209
iyordu	-9.83224
▁nedeni	-9.8329
▁Macaristan	-9.83332
▁kadınlar	-9.83367
▁dava	-9.83391
▁yapar	-9.83424
▁Pu	-9.83438
▁çekildi	-9.83477
▁kişisel	-9.83499
▁güneş	-9.83544
▁tamamı	-9.83556
▁yaparak	-9.83564
▁Park	-9.83582
▁saf	-9.83686
ó	-9.83763
▁alanda	-9.83765
▁Kor	-9.83786
hir	-9.83848
▁Bas	-9.83907
▁seçimleri	-9.83961
▁hakları	-9.83998
▁halkı	-9.84018
▁Atatürk	-9.8402
uş	-9.84069
▁yaşadı	-9.84142
▁Babası	-9.8425
ılmıştır	-9.84322
▁Trabzon	-9.84437
for	-9.84482
▁dolayısıyla	-9.84504
▁arada	-9.84543
lim	-9.84598
▁kalmıştır	-9.84695
▁Cumhurbaşkanı	-9.8472
bb	-9.84727
▁maçına	-9.84736
▁mümkün	-9.84784
isi	-9.84788
▁versiyonu	-9.84873
▁asıl	-9.84907
%	-9.84946
▁oluşmaktadır	-9.84948
▁Rum	-9.84957
mayı	-9.84993
▁şampiyonu	-9.85165
▁internet	-9.85208
▁süreci	-9.85268
▁Osman	-9.85286
▁Val	-9.85437
▁TBMM	-9.85446
▁gen	-9.85465
dere	-9.85481
▁Mon	-9.85519
▁Müdürlüğü	-9.85547
▁kulübü	-9.85603
bet	-9.85637
▁şampiyon	-9.85774
tiği	-9.85917
acaktır	-9.85948
rma	-9.85951
▁ettiler	-9.86048
▁Hasan	-9.8608
▁kral	-9.8608
▁Fu	-9.8618
▁kendine	-9.86227
gir	-9.86241
maz	-9.86255
▁sınıfı	-9.86291
▁lise	-9.86318
▁çıkardı	-9.86341
▁teori	-9.86382
▁verilir	-9.86392
evi	-9.86396
pan	-9.86419
▁biçimde	-9.86441
▁Aydın	-9.86448
▁oldukları	-9.86458
▁kullanan	-9.86516
▁kanal	-9.86707
▁aksine	-9.86719
tti	-9.86758
bor	-9.86786
▁satış	-9.86821
▁ortadan	-9.86861
▁duyurdu	-9.86937
tch	-9.86942
rt	-9.87018
ju	-9.8702
▁henüz	-9.87038
▁birimi	-9.87047
▁olduğundan	-9.87063
▁adamı	-9.87201
▁rapor	-9.87212
▁Birçok	-9.87214
dal	-9.87239
▁Richard	-9.87247
▁FC	-9.87295
▁tepe	-9.87346
▁uçuş	-9.87356
▁yapım	-9.87363
▁Microsoft	-9.87388
▁Federasyonu	-9.87401
▁Norveç	-9.8741
mekte	-9.87536
ledi	-9.87609
▁Sivas	-9.87707
▁Bulgaristan	-9.87765
▁We	-9.87768
▁hesap	-9.87813
▁değeri	-9.87886
▁[	-9.87973
▁dile	-9.87973
▁Şu	-9.87996
▁Kadınlar	-9.88006
▁Doktor	-9.8801
▁Yine	-9.88041
▁kır	-9.88178
▁ekonomi	-9.88181
▁Ardından	-9.88218
▁boş	-9.88228
▁Col	-9.88241
▁kelime	-9.88281
▁kuş	-9.88417
▁durumunda	-9.88424
▁Meksika	-9.88483
▁Che	-9.8853
▁tahta	-9.88533
▁derin	-9.88608
▁yöntemi	-9.88656
▁hızla	-9.88683
▁Akademi	-9.88695
lıdır	-9.88706
▁Hint	-9.88734
ney	-9.88826
▁Efendi	-9.88865
dor	-9.88879
▁bağlantı	-9.88882
▁ödülü	-9.88883
▁Roman	-9.88992
▁itibarı	-9.88997
▁olaylar	-9.89002
bra	-9.89003
▁mm	-9.89038
dil	-9.8904
▁güzel	-9.89087
▁istedi	-9.8909
▁parish	-9.89141
▁giderek	-9.89147
▁Ed	-9.89159
lanarak	-9.89185
müş	-9.89311
▁düz	-9.89334
▁imzaladı	-9.89342
▁civil	-9.89433
▁Is	-9.89465
▁kontluğunda	-9.89538
▁Jean	-9.89557
▁seçilmiştir	-9.89578
▁Sırp	-9.896
):	-9.89709
▁kap	-9.89718
top	-9.89727
▁Adana	-9.898
▁hata	-9.89815
▁bıraktı	-9.89851
▁müzisyen	-9.89876
rin	-9.89962
▁karısı	-9.89994
▁bit	-9.9
▁kod	-9.90016
▁iz	-9.90041
mekteydi	-9.90042
▁bal	-9.90066
▁otomobil	-9.90088
▁uzman	-9.90091
▁Dil	-9.90107
the	-9.90119
▁Konya	-9.90173
▁Süleyman	-9.90194
▁onay	-9.90202
bin	-9.9021
▁Tor	-9.90228
▁Şi	-9.90276
▁Min	-9.90298
▁düzey	-9.90325
ps	-9.90329
▁sahipti	-9.9037
▁kuru	-9.90469
▁Belçika	-9.90469
▁İbrahim	-9.90534
▁vergi	-9.90536
▁ihtiyaç	-9.9055
▁buldu	-9.90591
mik	-9.907
▁sınırlı	-9.90738
▁malzeme	-9.90759
yn	-9.90786
▁gerekir	-9.90801
▁birisi	-9.9086
▁War	-9.90872
tel	-9.90876
▁adım	-9.90888
▁po	-9.9091
eb	-9.90979
í	-9.90986
▁Bulgar	-9.91032
▁serisi	-9.91127
▁Pen	-9.91164
▁işlem	-9.91214
▁sorumlu	-9.91224
▁dal	-9.91248
▁Milletler	-9.9125
▁Angeles	-9.91309
▁Karadeniz	-9.91332
▁aslında	-9.91434
▁Ala	-9.91503
layarak	-9.91507
▁kur	-9.91568
bur	-9.9157
▁düzenleme	-9.91628
▁Millî	-9.91632
▁katılma	-9.91637
▁araba	-9.91669
▁yöntem	-9.91697
zen	-9.91721
▁Kom	-9.91724
▁Demir	-9.91813
▁tartışma	-9.91831
▁yandan	-9.91877
▁Sun	-9.91911
inci	-9.91947
▁san	-9.91959
ling	-9.91961
▁IV	-9.91967
▁Ermenistan	-9.92001
▁Kitap	-9.9202
▁almaya	-9.92047
stra	-9.92082
▁hüküm	-9.92084
▁Yıldız	-9.92124
▁ressam	-9.92167
▁çıkma	-9.92168
▁gümüş	-9.92193
▁yeterli	-9.92197
cer	-9.92299
abilen	-9.92316
▁Top	-9.92318
ilmiş	-9.92348
ros	-9.92352
▁tehdit	-9.92405
▁sıcaklık	-9.9242
▁teşvik	-9.92427
▁ayı	-9.9245
Ar	-9.92476
hen	-9.92577
müştür	-9.92594
▁Komitesi	-9.92706
sto	-9.92728
▁Henry	-9.9276
▁kullandı	-9.9276
▁Au	-9.92784
▁vermek	-9.92795
▁açı	-9.92824
▁bugün	-9.92852
▁belge	-9.9289
mit	-9.92899
▁katılan	-9.9293
gı	-9.93026
▁Ac	-9.93036
▁sporcu	-9.93039
▁yılda	-9.93041
▁Çocuk	-9.93042
▁sev	-9.93047
▁tanım	-9.93079
▁yılın	-9.93083
▁kullanılabilir	-9.9309
▁işletme	-9.9312
▁hızı	-9.93127
▁Antlaşması	-9.9314
▁kullanılması	-9.93231
▁yaşındayken	-9.9324
▁Özel	-9.93248
▁kaldır	-9.93255
▁Kent	-9.93292
lidir	-9.93334
▁Vol	-9.93337
▁ser	-9.93359
▁Eyaleti	-9.93403
▁is	-9.93431
▁Denizi	-9.93437
▁Macar	-9.93438
ub	-9.93478
▁ceza	-9.93519
▁arama	-9.93613
sıdır	-9.93702
▁şiddet	-9.93738
cy	-9.93811
▁düzenli	-9.93833
▁Q	-9.93861
▁askerî	-9.93891
▁davet	-9.93993
▁gezegen	-9.93996
▁aşama	-9.9403
▁idam	-9.94117
▁doğusunda	-9.94123
▁Gölü	-9.94151
▁Dışişleri	-9.94201
▁muhtemelen	-9.94218
▁esir	-9.94219
▁gereken	-9.94265
▁Ön	-9.94351
▁‘	-9.94355
▁giden	-9.9445
▁hayatta	-9.94468
▁aralarında	-9.94469
▁yurt	-9.94471
▁Tan	-9.94511
ib	-9.94575
▁koru	-9.94704
▁Eu	-9.94725
lamıştır	-9.9473
▁Olimpiyat	-9.94753
▁ed	-9.94756
ich	-9.94785
▁ders	-9.94847
landığı	-9.9488
▁Et	-9.94894
▁protesto	-9.94911
▁rock	-9.94921
▁hayat	-9.94953
▁terimi	-9.94965
leyici	-9.94998
▁seyahat	-9.95067
▁bey	-9.95088
▁zamanlar	-9.95091
▁teleskopla	-9.95105
▁sorun	-9.95129
▁Adam	-9.95131
ā	-9.95134
▁tak	-9.95153
▁duvar	-9.95184
▁başladığı	-9.95217
▁başrol	-9.9524
▁deprem	-9.95246
▁yolcu	-9.95315
▁Kısa	-9.95369
▁vb	-9.95396
pen	-9.95443
▁kurucusu	-9.95451
▁meclis	-9.95455
▁hasar	-9.95466
▁Tarihi	-9.95472
▁gelme	-9.95474
öz	-9.95489
leyerek	-9.95512
▁Sol	-9.95703
▁mahkeme	-9.95732
▁gerektiğini	-9.95771
▁anti	-9.95776
▁tren	-9.95782
▁sıvı	-9.95783
▁Press	-9.95823
▁lider	-9.95882
▁Sar	-9.95933
▁Thomas	-9.9594
▁inceleme	-9.95974
▁süresi	-9.95997
▁bunların	-9.96011
▁babasının	-9.96095
cha	-9.96111
▁Ülke	-9.9613
ciler	-9.96187
acağını	-9.96253
▁geliştirme	-9.96267
▁Danimarka	-9.96281
▁Kırım	-9.96354
▁yay	-9.96366
üz	-9.96391
▁Az	-9.96484
abilecek	-9.96545
▁Martin	-9.96556
р	-9.9659
▁kupa	-9.96608
▁gemisi	-9.96698
▁geldiği	-9.96748
▁batısında	-9.96758
▁operasyon	-9.96775
▁yazılan	-9.96778
ımı	-9.96809
▁Venedik	-9.9682
▁yüzünden	-9.96858
▁politika	-9.96997
▁isyan	-9.97011
▁müze	-9.97041
▁kart	-9.97091
š	-9.97094
berg	-9.971
▁asit	-9.97194
leş	-9.972
dia	-9.97242
▁vurgu	-9.97252
▁çekti	-9.97275
dol	-9.97313
▁biraz	-9.97416
▁Kir	-9.97447
▁Louis	-9.97583
▁balık	-9.97594
▁am	-9.9764
▁okuma	-9.97651
▁erkekler	-9.97655
▁ilçesi	-9.97665
▁tanı	-9.97685
▁binası	-9.97719
▁içi	-9.9773
▁Final	-9.97772
▁yeşil	-9.97801
▁kullandığı	-9.97804
▁teklif	-9.97835
au	-9.97851
▁değişim	-9.97954
▁etnik	-9.97983
▁insanı	-9.97997
▁Tom	-9.98015
▁bulun	-9.98071
▁finale	-9.98101
▁sıcak	-9.98186
▁yanlış	-9.98203
rı	-9.98207
▁Bilim	-9.98278
▁rolü	-9.9831
▁güven	-9.98315
ıyordu	-9.98322
▁boz	-9.9833
▁Katalog	-9.98376
▁biyo	-9.98377
▁doğan	-9.98401
▁aşağı	-9.98458
▁Çek	-9.98474
▁adayı	-9.9852
▁edebiyat	-9.98541
vel	-9.98547
gerçekleştirilen	-9.98685
ılarak	-9.98686
SA	-9.98695
ا	-9.98714
▁küme	-9.98725
An	-9.98731
▁karmaşık	-9.9877
▁kimyasal	-9.98813
ano	-9.98877
istan	-9.98937
▁Komünist	-9.98977
rat	-9.99
▁siyaset	-9.99122
▁birliği	-9.99126
▁Adası	-9.99139
Me	-9.99254
▁kanalı	-9.99279
▁saray	-9.99296
▁Hüseyin	-9.99302
▁Dönem	-9.99306
kat	-9.99318
▁edin	-9.99354
ras	-9.99358
aceae	-9.99384
▁katıldığı	-9.99386
▁yere	-9.9941
ero	-9.99448
▁geçici	-9.99529
▁yapımcı	-9.99532
▁numaralı	-9.99532
▁Gökyüzünde	-9.99535
▁mağlup	-9.99582
ğa	-9.99601
▁etkileşim	-9.99628
▁ku	-9.99641
lardaki	-9.99684
▁Fransızca	-9.99872
▁varlık	-9.99901
▁Hem	-9.99967
lip	-9.9998
▁beste	-9.99986
▁sürümü	-10.0009
fo	-10.001
baş	-10.0019
▁karşın	-10.0026
▁Dağı	-10.0031
▁Rock	-10.0032
▁orman	-10.0039
qui	-10.0039
lerdeki	-10.0039
▁sat	-10.004
к	-10.0041
▁dalında	-10.0048
▁Antalya	-10.005
port	-10.0051
▁Art	-10.0055
▁beşinci	-10.0066
dra	-10.0069
▁Par	-10.009
▁halkın	-10.009
▁kalır	-10.0092
ford	-10.0096
▁sonradan	-10.0096
▁gelişme	-10.0097
oid	-10.0098
▁Yüzölçümü	-10.0099
▁Hay	-10.0102
▁projesi	-10.0102
ray	-10.0106
▁taşıma	-10.0106
▁Para	-10.0108
▁yak	-10.0112
▁onların	-10.0114
▁King	-10.0117
▁olumlu	-10.012
ი	-10.0125
▁Ahmed	-10.0127
▁boy	-10.013
▁hat	-10.0131
▁gösterildi	-10.0134
▁yayım	-10.0137
▁içine	-10.0138
▁Sosyalist	-10.0138
▁kullanılarak	-10.0138
у	-10.0142
▁köle	-10.0145
▁seçme	-10.0149
▁kaya	-10.015
aş	-10.0152
şan	-10.0154
▁anne	-10.0157
dağ	-10.0162
▁dans	-10.0163
▁Kim	-10.0167
▁Antik	-10.0171
ori	-10.0181
▁Adalet	-10.0193
▁birbirine	-10.0196
▁elinde	-10.0197
▁Evli	-10.0201
kir	-10.0201
▁göl	-10.0204
▁ürün	-10.0204
▁bitirdi	-10.0205
▁renkli	-10.0206
ph	-10.0206
ble	-10.0208
▁doğumlu	-10.021
▁asıllı	-10.0212
▁yönettiği	-10.0214
til	-10.0215
▁Tiyatrosu	-10.0219
▁sayfa	-10.022
dik	-10.0233
▁University	-10.0236
▁fe	-10.0236
▁İsa	-10.0236
oku	-10.0237
▁bölgeye	-10.0239
▁hayatı	-10.0241
oksi	-10.0242
α	-10.0242
kil	-10.0245
ola	-10.0249
▁sürdürdü	-10.0254
▁kamera	-10.0254
▁toplantı	-10.0254
▁amaçlı	-10.026
▁süreç	-10.0263
▁edilebilir	-10.0266
▁Mil	-10.0271
▁işbirliği	-10.0276
▁West	-10.0276
▁kalp	-10.0279
▁hareketi	-10.0287
▁numara	-10.0289
▁darbe	-10.0295
▁oynayan	-10.0297
▁atom	-10.0298
▁yasal	-10.03
▁ister	-10.03
▁girmiştir	-10.0302
ih	-10.0308
▁reklam	-10.031
▁Com	-10.0313
▁kazı	-10.0315
▁dev	-10.0316
▁yağ	-10.0323
kla	-10.0327
▁kuvvet	-10.033
▁gerçekleşen	-10.0334
mı	-10.0341
▁anlaşıl	-10.0343
▁ilişkiler	-10.0346
hip	-10.0352
▁Genellikle	-10.0352
▁geçmiştir	-10.0363
▁vermektedir	-10.0365
▁Vakfı	-10.0365
▁gerçekleştir	-10.0366
▁kıl	-10.0367
▁Papa	-10.0369
▁benzeri	-10.0371
▁Ş	-10.0373
▁Savunma	-10.0375
▁Tıp	-10.0377
▁mavi	-10.0383
▁be	-10.0386
burg	-10.039
ses	-10.0395
▁organizasyon	-10.0397
yal	-10.0398
▁yapılması	-10.0402
▁Genç	-10.0408
▁yarışması	-10.0409
▁İlçe	-10.0411
▁gruplar	-10.0414
gün	-10.0415
▁mikro	-10.0416
▁kg	-10.0417
▁değişik	-10.0417
▁kısım	-10.0421
▁gönderildi	-10.0422
▁yüzde	-10.0425
▁albümün	-10.0425
ice	-10.0438
ili	-10.0438
▁Filmin	-10.0446
sil	-10.0452
▁savaşı	-10.0453
▁bunlar	-10.0458
mur	-10.0463
▁Mark	-10.0469
▁seviye	-10.0471
▁Romanya	-10.0475
▁başlamış	-10.0475
▁Bro	-10.0476
▁akım	-10.048
▁olmadan	-10.048
▁aşı	-10.0481
▁Üniversite	-10.0484
▁kavram	-10.0487
▁demir	-10.0488
kul	-10.049
▁katkıda	-10.0491
▁Latin	-10.0498
▁Eğer	-10.05
▁desteği	-10.0502
mesine	-10.0507
esi	-10.0508
▁görülmektedir	-10.0513
medi	-10.0513
rü	-10.0517
▁görme	-10.0518
▁açıldı	-10.0519
sur	-10.0519
▁tablo	-10.052
▁MS	-10.0521
▁Pers	-10.0529
▁İlin	-10.0533
▁Sırbistan	-10.0539
▁yazma	-10.054
▁pat	-10.0542
▁Milli	-10.0544
▁başlandı	-10.0545
▁Sen	-10.0549
▁mezar	-10.0549
▁Ah	-10.055
▁işgali	-10.0554
▁nehir	-10.0559
stan	-10.0567
▁Gre	-10.0571
gor	-10.0573
▁bağlıdır	-10.0579
▁Tarih	-10.058
▁Maç	-10.058
▁bilgiler	-10.0581
▁hastalığı	-10.0583
ier	-10.0583
▁maruz	-10.0584
inae	-10.0588
▁metin	-10.059
lığına	-10.0594
▁rakibi	-10.0596
▁turnuva	-10.0596
▁Sur	-10.0598
▁kaza	-10.06
▁Arapça	-10.0602
▁Adaları	-10.0605
▁sanatçısı	-10.0613
▁ortasında	-10.0616
▁makale	-10.0618
▁böyle	-10.0621
▁altındaki	-10.0623
▁tank	-10.0625
▁Mehmed	-10.0626
▁Söz	-10.0629
▁komedi	-10.0632
▁edildiği	-10.0634
▁saç	-10.0641
altı	-10.0642
▁özgü	-10.065
▁petrol	-10.0651
▁savaşın	-10.0653
▁yaşanan	-10.0653
▁Hü	-10.0656
▁dek	-10.0658
eddin	-10.0658
▁fikir	-10.0665
▁hakim	-10.0675
gra	-10.0678
▁yakınlarında	-10.0682
▁unvanı	-10.0689
şah	-10.0689
▁eleme	-10.0691
▁ismini	-10.0692
▁temsilcisi	-10.0694
▁muharebe	-10.0696
▁kaçır	-10.07
▁sonuna	-10.0701
bah	-10.0701
Al	-10.0702
lus	-10.0704
▁yapıldığı	-10.0714
▁ailesinin	-10.0715
▁sezonun	-10.0716
▁yazılı	-10.0718
▁Takım	-10.0721
▁kopya	-10.0723
eceğini	-10.0729
▁demiryolu	-10.0729
▁günümüze	-10.0731
▁Vo	-10.0734
▁hastalık	-10.0739
▁zamanlarda	-10.0739
▁Zi	-10.0739
▁gerçekleştiril	-10.0744
▁isteyen	-10.0749
syon	-10.0752
▁bronz	-10.0762
▁Aziz	-10.0763
▁ISBN	-10.0766
▁Taş	-10.0769
▁em	-10.0771
▁çıktığı	-10.0774
▁sorunları	-10.0777
▁dergisi	-10.0778
▁yazılmış	-10.078
▁Oyunları	-10.0781
▁korku	-10.0783
▁tepki	-10.0784
paşa	-10.0785
▁Cu	-10.0789
▁şekli	-10.079
▁familyasıdır	-10.0791
▁güçleri	-10.0799
▁alınması	-10.08
▁biriydi	-10.0802
▁Kulübü	-10.0807
▁Lee	-10.0807
▁Baba	-10.0808
▁Şe	-10.081
yü	-10.0821
▁Finlandiya	-10.0822
▁felsefe	-10.0827
▁Yeşil	-10.0829
ys	-10.083
▁öldürüldü	-10.084
lendiği	-10.0841
▁ölçü	-10.0841
▁anlam	-10.0842
bri	-10.0845
▁yönetmenliğini	-10.0845
▁ürünleri	-10.0847
ight	-10.0847
Se	-10.0848
ük	-10.085
▁ederken	-10.0857
▁Ur	-10.0859
▁kurulması	-10.086
amaz	-10.0861
▁nesne	-10.0862
▁Red	-10.0862
▁çözüm	-10.0863
▁Saint	-10.0865
▁ton	-10.0866
▁Diyarbakır	-10.0866
cus	-10.0867
ladığı	-10.0869
▁marka	-10.0869
dem	-10.0871
▁kuruluş	-10.0872
▁kişidir	-10.0879
şı	-10.0881
▁yönetici	-10.0881
▁bünyesinde	-10.0884
liğine	-10.0884
kor	-10.0887
▁basın	-10.0887
aç	-10.0888
vet	-10.0888
▁adlandırılır	-10.0892
▁bölgelerde	-10.0894
cak	-10.0898
▁Atina	-10.0902
▁toplamda	-10.0906
▁yayınlanmıştır	-10.0907
▁terim	-10.0909
▁Şam	-10.0911
▁zamanında	-10.0918
▁Sc	-10.0918
▁uydu	-10.0919
▁Washington	-10.092
lanabilir	-10.0921
pla	-10.0922
▁NBA	-10.0924
▁mektup	-10.093
▁Black	-10.0932
▁düştü	-10.0933
▁tasvir	-10.0935
larındaki	-10.0936
▁Tam	-10.0938
▁aş	-10.0939
ysa	-10.0942
amadı	-10.0946
▁duyu	-10.095
▁oyunun	-10.0952
▁Hor	-10.0952
lerdi	-10.0956
▁ağaç	-10.0957
▁rekabet	-10.0963
▁direktör	-10.0964
▁imparator	-10.0965
▁yardımcısı	-10.0965
с	-10.0971
skop	-10.0973
ğinde	-10.0974
tma	-10.0976
▁tasarımı	-10.0976
▁katılımcı	-10.098
▁Ste	-10.0982
En	-10.0987
ring	-10.0991
▁Frank	-10.0993
▁Basketbol	-10.0994
iç	-10.0995
sim	-10.1
elli	-10.1003
▁sezonda	-10.1012
of	-10.1013
▁Meclis	-10.1015
▁Güzel	-10.1015
▁hizmeti	-10.1017
▁yaşama	-10.1024
bre	-10.1026
▁Camii	-10.1026
▁ödülünü	-10.1027
mir	-10.1028
▁All	-10.1029
▁Boy	-10.103
▁kurucu	-10.1033
▁bomba	-10.1034
ıldığı	-10.1035
ino	-10.1037
▁meyve	-10.1038
▁İmparator	-10.1041
▁Bosna	-10.1047
mber	-10.1048
one	-10.1048
gh	-10.1048
▁çocukları	-10.1054
▁toplumsal	-10.1059
▁iklim	-10.1059
▁sürü	-10.1066
▁dayalı	-10.1066
▁hazırlık	-10.1067
▁Modern	-10.1067
▁yarışı	-10.1074
▁bölgenin	-10.1077
▁Cla	-10.1084
jan	-10.1085
ız	-10.1087
▁geçirdiği	-10.1087
▁araştırmalar	-10.109
▁Selçuklu	-10.1093
▁besteci	-10.1096
▁Em	-10.1098
mas	-10.111
▁evli	-10.1116
ben	-10.1121
yl	-10.1122
▁katkı	-10.1123
ary	-10.1124
▁Yan	-10.1135
т	-10.1139
mel	-10.1143
▁Mc	-10.1144
▁atan	-10.1144
nar	-10.1146
▁dizisinde	-10.1148
▁Viyana	-10.1148
ınca	-10.1149
▁pop	-10.115
▁önceden	-10.1151
▁kurul	-10.1156
▁(;	-10.1158
▁kendisinin	-10.1164
▁opera	-10.1165
▁politik	-10.1166
▁gelişimi	-10.1171
▁öz	-10.1172
▁Tro	-10.1183
ami	-10.1183
▁Mel	-10.1185
▁Kale	-10.1193
▁örneğin	-10.1196
▁kalın	-10.1203
raf	-10.1205
▁kolu	-10.1209
▁filmidir	-10.1211
▁Maria	-10.1212
▁küresel	-10.1216
▁galibiyet	-10.1219
▁Geç	-10.1225
Pa	-10.1225
rik	-10.1225
▁Kürt	-10.1227
▁komutanı	-10.1228
makta	-10.1229
▁kanat	-10.1232
▁komündür	-10.1233
▁reform	-10.1237
yev	-10.1237
▁gören	-10.1242
▁kamp	-10.1243
De	-10.1249
eme	-10.1249
▁işlemi	-10.1252
veya	-10.1259
ium	-10.1262
▁pan	-10.1264
▁güreşçi	-10.1264
▁konuş	-10.1269
▁eserler	-10.1272
ა	-10.1272
▁dijital	-10.1278
▁ben	-10.1282
▁çevresinde	-10.1282
▁denge	-10.1287
▁Yunanca	-10.1288
▁Ex	-10.1295
▁olanak	-10.1297
cho	-10.1305
▁eserleri	-10.1313
▁Pri	-10.1315
ilen	-10.1319
▁bastır	-10.132
▁merkezinde	-10.132
▁algı	-10.1321
▁Mahkemesi	-10.1321
bul	-10.1325
▁Yönetim	-10.1326
▁isimler	-10.1327
▁Sonra	-10.1335
▁miktarda	-10.1336
kle	-10.1338
▁ettiğini	-10.1343
▁tarihte	-10.1345
▁ruh	-10.1347
▁parçaları	-10.1348
sti	-10.1349
▁halde	-10.1351
▁soru	-10.1352
▁türleri	-10.1357
▁Birleşmiş	-10.1358
rip	-10.1359
cia	-10.1362
▁Ata	-10.1366
▁saldırısı	-10.137
▁sözcüğü	-10.1371
▁mesafe	-10.1372
▁zorunlu	-10.1374
his	-10.1376
▁boya	-10.1379
lâ	-10.138
tri	-10.1381
▁şampiyonluğu	-10.1388
▁buz	-10.139
lerindeki	-10.1394
▁kaydetti	-10.1395
▁Yol	-10.1405
▁ayrılır	-10.1405
ari	-10.1407
low	-10.1408
▁süper	-10.141
▁başarısı	-10.141
▁çoğunluğu	-10.1411
▁dönüştü	-10.1412
▁ölümüne	-10.1412
ston	-10.1415
▁analiz	-10.1417
▁diş	-10.1419
yarak	-10.142
▁kütle	-10.1427
▁sinir	-10.1446
▁Kendisi	-10.145
);	-10.1452
mesini	-10.1453
▁ülkelerin	-10.146
av	-10.1463
▁uygulaması	-10.1464
eği	-10.1466
▁köyün	-10.1471
▁vaka	-10.1471
▁Yaş	-10.1472
▁sezonunun	-10.1474
▁yüzü	-10.1481
▁katılmıştır	-10.1481
▁silahlı	-10.1481
▁yerleşti	-10.1485
umu	-10.1488
▁Kır	-10.149
▁Yıl	-10.1492
▁del	-10.1497
▁kaldığı	-10.1503
▁sahil	-10.1509
▁düşün	-10.1512
▁Billboard	-10.1512
▁vur	-10.1515
▁bil	-10.1517
▁Fin	-10.1519
▁Super	-10.1521
▁açıklandı	-10.1521
▁etkin	-10.1523
laştır	-10.1524
▁uzaklıkta	-10.1528
▁gerçekleşti	-10.1528
▁no	-10.1529
ilmesi	-10.153
▁görür	-10.153
▁gelişmiş	-10.1533
form	-10.1533
▁Stadyumu	-10.1534
▁sarmal	-10.1534
art	-10.1536
öl	-10.1538
▁ligi	-10.1538
ilir	-10.1542
▁şeker	-10.1543
ec	-10.1545
▁yönetmeni	-10.1553
sun	-10.1555
▁She	-10.1559
ildi	-10.1561
▁mimar	-10.1562
▁dünyada	-10.1563
▁ülkeler	-10.1564
▁hatır	-10.1566
▁Havalimanı	-10.1567
▁Edward	-10.1567
▁yarısında	-10.157
▁baskın	-10.1572
▁genelde	-10.1573
▁kav	-10.1577
▁cam	-10.1583
lit	-10.1584
▁deneyim	-10.1586
▁dönme	-10.1591
▁yeteneği	-10.1591
▁numaraya	-10.1593
ecektir	-10.1595
ücü	-10.1596
▁evinde	-10.1599
sit	-10.1605
▁gönder	-10.1625
abileceği	-10.163
▁kor	-10.1631
▁ölümü	-10.1634
▁hapis	-10.1636
▁ülkelerde	-10.1636
rap	-10.1637
Ge	-10.1637
İngilizce	-10.164
▁Gazete	-10.1643
▁DNA	-10.1646
▁ikili	-10.1653
▁biçim	-10.1656
▁hepsi	-10.1658
▁Alan	-10.1661
çu	-10.1664
▁heykel	-10.1666
▁başlangıçta	-10.1669
▁Gür	-10.1671
tör	-10.1671
▁Kraliyet	-10.1671
▁Dizi	-10.1678
▁okudu	-10.1683
▁dayanan	-10.1685
▁kullan	-10.169
▁Yarı	-10.1692
▁park	-10.1692
▁Kay	-10.1693
▁Dağları	-10.1693
▁kullanma	-10.1697
tay	-10.1704
▁Zaman	-10.1705
▁kapalı	-10.1711
▁albümleri	-10.1712
▁emir	-10.1715
bal	-10.1715
and	-10.1717
▁olmaya	-10.1725
▁kenti	-10.1725
▁toplama	-10.1726
▁Gazi	-10.1727
▁elektronik	-10.1732
▁emri	-10.1733
▁Ty	-10.1734
▁platform	-10.1736
▁ödeme	-10.1736
▁kültürü	-10.1747
▁alın	-10.1749
▁eline	-10.1753
▁can	-10.1755
▁tarihsel	-10.1755
▁aittir	-10.1756
▁ordusunun	-10.1757
▁etrafında	-10.1757
▁Erkek	-10.1766
▁Teknik	-10.1768
▁eğitimini	-10.1773
▁Kudüs	-10.1777
▁uyar	-10.1777
▁köprü	-10.1778
▁Joseph	-10.1778
▁şirketin	-10.1781
▁sürüldü	-10.1784
▁Kol	-10.1785
▁reddetti	-10.1791
▁Din	-10.1791
lıyor	-10.1806
▁değildi	-10.1807
▁anlamda	-10.1809
▁Alt	-10.1811
▁par	-10.1816
▁Apple	-10.1819
istik	-10.1822
▁çiçek	-10.1822
▁banka	-10.1824
▁dokuz	-10.1826
▁kemer	-10.183
La	-10.1836
olojik	-10.1838
og	-10.1842
tre	-10.1842
▁ilişkileri	-10.1842
▁sunucu	-10.1843
▁gerektiği	-10.1847
duğu	-10.1847
▁aç	-10.1848
▁dilleri	-10.1849
kel	-10.185
▁Kutsal	-10.1852
▁soğuk	-10.1856
▁yaşlı	-10.1858
cal	-10.186
▁köşe	-10.1862
▁fi	-10.1862
▁durumlarda	-10.1865
▁adamları	-10.1866
▁basketbol	-10.188
▁üstlendi	-10.1882
▁biçimi	-10.1889
ić	-10.189
▁seç	-10.1891
▁günde	-10.1893
▁Records	-10.1895
▁ekip	-10.1896
ag	-10.1896
rus	-10.1897
sor	-10.1898
▁Hanedanı	-10.1899
▁oluşturduğu	-10.1906
▁köyünde	-10.1915
fen	-10.1916
▁Barış	-10.1926
del	-10.1927
ville	-10.1928
▁ata	-10.1928
▁Çift	-10.193
hor	-10.1935
▁onlara	-10.1936
sky	-10.1938
şehir	-10.1947
▁profesör	-10.1958
nos	-10.1959
▁Pas	-10.1959
▁Sarı	-10.1964
▁öykü	-10.1968
▁League	-10.1969
▁eylem	-10.1973
▁Samsun	-10.1976
▁oluşturma	-10.1978
lamak	-10.1984
▁Sağlık	-10.1984
▁İsmail	-10.1986
▁gazetesi	-10.199
▁Makedonya	-10.199
▁yatırım	-10.199
emi	-10.1995
▁Albert	-10.1998
▁Gö	-10.1998
▁kahraman	-10.1999
cor	-10.2
▁tanınan	-10.2001
▁öğretmen	-10.2006
▁mimari	-10.2007
ella	-10.201
▁tarihlerinde	-10.2011
▁Bell	-10.2013
▁devletin	-10.2016
▁şehridir	-10.202
▁bölgeleri	-10.202
▁kurma	-10.2023
▁görüldü	-10.2026
▁takımlar	-10.2026
▁kulüplerinde	-10.2032
▁babasıdır	-10.2035
▁ücret	-10.2036
▁Kendi	-10.2036
▁klip	-10.2037
▁temiz	-10.2037
▁Üçüncü	-10.2038
▁yola	-10.2041
tim	-10.2041
▁Çe	-10.205
▁hangi	-10.2053
▁kendilerini	-10.2053
▁yanıt	-10.2055
▁komutasındaki	-10.2056
▁bakımından	-10.2058
bon	-10.206
▁Ch	-10.2061
▁Bak	-10.2062
ama	-10.2064
▁hisse	-10.2064
▁çıkması	-10.2067
▁sal	-10.2072
▁Google	-10.2075
▁cephe	-10.2076
▁yapılma	-10.2076
▁County	-10.208
▁Port	-10.2081
şar	-10.2082
▁tıp	-10.209
▁kullanıldığı	-10.2093
▁çalıştığı	-10.2094
ence	-10.2095
▁geliştirilen	-10.2095
▁boyut	-10.21
▁kimse	-10.2102
▁oynamıştır	-10.2103
vis	-10.2103
▁Şampiyonlar	-10.2107
arı	-10.2108
▁altfamilyasına	-10.2114
▁Güvenlik	-10.2115
ting	-10.2116
gun	-10.2117
▁girme	-10.2119
▁karşılığında	-10.2121
▁makine	-10.2121
▁Love	-10.2123
▁Zo	-10.2137
▁kıyısında	-10.2141
▁alternatif	-10.2142
▁Devrimi	-10.2142
▁artan	-10.2144
▁Pra	-10.2149
▁subay	-10.2149
▁Demokrat	-10.2155
▁gıda	-10.2156
▁sebebi	-10.2159
▁sonu	-10.2164
▁Arnavutluk	-10.2164
▁Çoğu	-10.2165
▁iptal	-10.2168
▁korumak	-10.2169
Le	-10.2169
▁nükleer	-10.2171
lıkları	-10.2171
▁Kalesi	-10.2172
▁şehirde	-10.2176
▁mekan	-10.2177
Q	-10.2181
▁döner	-10.2182
Ta	-10.2185
sunu	-10.2187
yr	-10.2188
▁başkanlığı	-10.2193
▁başlattı	-10.2199
▁üyesidir	-10.22
▁You	-10.22
ünde	-10.2204
▁anıt	-10.2205
▁Sarayı	-10.2209
▁gönderdi	-10.2217
▁zafer	-10.2221
▁eşlik	-10.2222
▁yargı	-10.2225
▁parlak	-10.2225
fan	-10.2226
▁ekiplerinden	-10.2227
▁dedi	-10.2227
▁Beş	-10.2232
bus	-10.2233
▁kış	-10.2235
af	-10.2236
▁Af	-10.2238
▁baba	-10.2238
▁grubunun	-10.224
▁kurum	-10.224
▁Wal	-10.2241
▁Carl	-10.2245
▁Büyükşehir	-10.2249
▁Plan	-10.2255
▁başlıca	-10.2258
▁kısmında	-10.2258
▁yansıt	-10.2259
▁tarafında	-10.2263
ilmiştir	-10.2266
▁seçilen	-10.2268
kaya	-10.2268
SS	-10.227
▁Mag	-10.2274
▁rengi	-10.2276
▁avukat	-10.2276
ska	-10.2276
▁kut	-10.2277
▁uygulamaları	-10.2279
▁gördüğü	-10.2283
▁boyu	-10.2288
▁eleştiri	-10.2288
▁Sim	-10.2288
▁()	-10.229
süz	-10.2291
▁Dur	-10.2292
▁Yerli	-10.2293
▁idare	-10.2296
▁konum	-10.2301
▁alınmıştır	-10.2302
▁Del	-10.2305
▁turda	-10.2309
kol	-10.231
hin	-10.2313
▁unvanını	-10.2317
▁yarar	-10.2322
▁Yo	-10.2323
ef	-10.2323
▁Yazar	-10.2324
▁Bugün	-10.2326
ə	-10.2326
▁Alp	-10.233
▁suyu	-10.2337
▁Chris	-10.2342
▁Play	-10.2343
▁ülkesi	-10.2347
▁Demokratik	-10.2348
▁maça	-10.2348
▁fonksiyon	-10.2352
ışı	-10.2354
▁Fatih	-10.2359
▁Başbakan	-10.2359
▁Çi	-10.2359
▁Hacı	-10.2359
▁°	-10.236
lanmaktadır	-10.2365
▁Tah	-10.2366
▁Açık	-10.237
▁ailenin	-10.2374
▁dolu	-10.2379
▁açıdan	-10.2381
▁kurban	-10.2382
▁Ken	-10.2383
▁gelmiş	-10.2383
▁Tiyatro	-10.2385
▁koyu	-10.2385
▁kavramı	-10.2386
▁kaydı	-10.2386
▁müdahale	-10.2394
▁Ege	-10.2395
▁öğrencisi	-10.2395
▁Sin	-10.2396
▁hane	-10.2402
▁ayrılma	-10.2406
▁gelmesi	-10.2406
sse	-10.2407
Da	-10.2413
asyonu	-10.2413
▁tamam	-10.2415
▁öncesinde	-10.2417
▁ilişkisi	-10.2424
▁isteği	-10.2425
osu	-10.2425
ala	-10.2426
▁liman	-10.2426
▁say	-10.2428
▁doktor	-10.2434
▁Sonuç	-10.2437
▁Tab	-10.2437
▁girer	-10.2438
row	-10.2441
cher	-10.2442
▁oyunları	-10.2442
▁direniş	-10.2443
▁düzenlendi	-10.2449
▁yakıt	-10.2449
▁seçimi	-10.245
▁Karl	-10.2457
tr	-10.2458
lia	-10.246
▁firma	-10.2467
my	-10.2468
rmak	-10.247
▁aktör	-10.2475
▁asist	-10.2477
mışlardır	-10.2477
dıkları	-10.2488
ture	-10.2492
▁United	-10.2511
م	-10.2514
▁yön	-10.2515
ön	-10.2515
Bo	-10.2516
▁Tatar	-10.2516
likleri	-10.2523
▁Sev	-10.2525
fet	-10.2525
▁nesil	-10.2528
▁sanatı	-10.2529
lenebilir	-10.2532
▁Madrid	-10.2532
dri	-10.2535
▁görevine	-10.2545
▁Şirket	-10.2546
▁sokak	-10.2548
▁aynalı	-10.255
▁Emir	-10.2554
▁alanları	-10.2556
▁açılan	-10.2562
▁Ağa	-10.2564
▁Dört	-10.2569
▁kaç	-10.2569
▁kapan	-10.2571
▁Kurumu	-10.2575
▁sürede	-10.2584
▁ez	-10.2585
▁toplu	-10.2586
▁olumsuz	-10.259
gram	-10.2591
▁yenerek	-10.2593
▁derecede	-10.2594
▁Ant	-10.2597
▁olası	-10.2599
▁sıklıkla	-10.2602
▁Sel	-10.2603
yse	-10.2603
▁Un	-10.2605
sizlik	-10.2612
cil	-10.2614
şık	-10.2617
▁gitar	-10.2619
liler	-10.2623
▁yirmi	-10.2626
▁uçağı	-10.2626
▁anayasa	-10.2627
mis	-10.2628
▁geçerek	-10.2634
▁sınırı	-10.2635
▁oluşturulan	-10.2636
sha	-10.2636
loji	-10.2639
laştırma	-10.2641
▁Ticaret	-10.2644
cik	-10.2645
è	-10.2646
luğa	-10.2647
hl	-10.2647
▁saniye	-10.2654
▁Sir	-10.2656
▁Ok	-10.2656
▁yaklaşım	-10.2657
▁Ça	-10.2659
▁yaşamaktadır	-10.2664
alt	-10.2666
▁Lin	-10.2666
▁Mem	-10.2671
▁işi	-10.2671
▁karbon	-10.2671
▁işleme	-10.2672
▁cinsiyet	-10.2672
▁vadi	-10.2674
▁arkadaş	-10.2678
▁meydan	-10.2684
▁Yayınları	-10.2688
kur	-10.2689
▁Cal	-10.2693
▁Ker	-10.2695
bit	-10.2695
▁yazılmıştır	-10.2696
▁Kız	-10.2701
▁belirgin	-10.2706
▁Göl	-10.2707
▁şa	-10.271
▁hal	-10.2714
▁egemenliği	-10.2714
▁Smith	-10.2715
▁ölü	-10.272
▁değişken	-10.2722
▁ayar	-10.2722
▁sisteminin	-10.2726
▁kuşatma	-10.273
▁programları	-10.2735
kâr	-10.2738
leştirilmesi	-10.2741
▁Litvanya	-10.2746
▁Far	-10.2747
▁cinayet	-10.2749
rdı	-10.275
Mo	-10.2752
▁girişim	-10.2754
▁girmesi	-10.2756
▁—	-10.2757
▁Angel	-10.2765
nis	-10.2767
▁ittifak	-10.277
dis	-10.2776
▁kişiden	-10.2781
ora	-10.2783
▁trans	-10.2786
▁değişiklik	-10.2795
lav	-10.2795
▁kısmen	-10.2799
ill	-10.2801
▁Den	-10.2804
tter	-10.2808
AM	-10.281
▁belir	-10.2811
▁or	-10.2812
▁sinyal	-10.2819
▁İs	-10.282
▁sap	-10.2821
▁tipik	-10.2821
▁edip	-10.2823
▁hayatına	-10.2824
▁bulunması	-10.2825
▁verilme	-10.2825
mes	-10.2827
▁Jack	-10.2832
▁genelinde	-10.2834
▁esnasında	-10.2835
▁değişiklikler	-10.2839
▁bölümde	-10.2843
landırma	-10.2844
▁yürü	-10.2845
▁protein	-10.2847
▁öncü	-10.2847
▁elektro	-10.2848
set	-10.2854
OS	-10.2855
▁böcek	-10.2857
our	-10.2859
▁sıkı	-10.286
▁özerk	-10.286
▁Fri	-10.2861
con	-10.2863
▁ötürü	-10.2863
▁zirve	-10.2865
▁geçerli	-10.2867
▁ilişkili	-10.287
▁düşünülmektedir	-10.2873
çü	-10.2876
▁nüfusun	-10.2882
eğe	-10.2883
▁komşu	-10.2885
pınar	-10.2886
▁alması	-10.2886
lenerek	-10.2888
▁Gök	-10.2889
bas	-10.2891
▁Ömer	-10.2891
sco	-10.2897
ens	-10.2901
▁ilaç	-10.2904
▁İz	-10.2905
ish	-10.2907
▁May	-10.2912
▁vokal	-10.2916
nan	-10.292
▁komutan	-10.2928
▁ortalarında	-10.293
tha	-10.2932
way	-10.2933
▁olmakla	-10.2934
▁köpek	-10.2935
▁Sanatçı	-10.2943
▁ilerleme	-10.2945
▁takımlarından	-10.2948
▁içerik	-10.295
▁önüne	-10.295
abilmektedir	-10.295
▁vücut	-10.2951
án	-10.2953
▁disk	-10.2959
tta	-10.2965
▁yumurta	-10.2968
▁Euro	-10.2971
▁Hy	-10.2974
▁seviyesi	-10.2976
▁Filistin	-10.2977
▁karış	-10.2978
Ya	-10.298
ura	-10.2981
sat	-10.2982
▁mesaj	-10.2984
sion	-10.2984
▁Fre	-10.2985
▁Mah	-10.299
▁listesi	-10.2994
▁konferans	-10.2995
tip	-10.2996
▁istasyonu	-10.2996
▁bağış	-10.2999
▁uzunluğunda	-10.3001
▁Ren	-10.3007
▁gönderme	-10.3008
▁yapması	-10.3009
▁Shi	-10.3014
▁cilt	-10.3016
▁yöre	-10.3016
▁olacaktır	-10.302
▁yanına	-10.3027
▁Arnavut	-10.3029
▁işletim	-10.303
▁Cephesi	-10.3036
ds	-10.3037
▁göçmen	-10.304
▁uzanan	-10.304
▁yaptıkları	-10.3043
▁oynamaktadır	-10.3043
▁yönetilen	-10.3044
▁kesim	-10.3045
▁Prof	-10.3045
emez	-10.3045
ise	-10.3047
▁çıkmış	-10.3051
▁yörünge	-10.3052
▁doktora	-10.3053
Te	-10.3053
psi	-10.3054
▁başkent	-10.3056
▁Komisyonu	-10.3057
▁Hol	-10.3059
▁özellik	-10.3062
▁kaybı	-10.3066
bek	-10.3068
rey	-10.307
gue	-10.3071
▁Ortodoks	-10.3071
yol	-10.3076
ves	-10.3078
mil	-10.3078
▁güreş	-10.3078
pol	-10.3079
▁Mus	-10.3079
hy	-10.3081
▁bek	-10.3083
aklı	-10.3087
masıyla	-10.3088
▁Latince	-10.3089
ы	-10.3091
▁çek	-10.3091
▁toprakları	-10.3093
▁olduktan	-10.3095
Be	-10.3098
şim	-10.3101
▁miktarı	-10.3103
tas	-10.3109
▁Win	-10.3109
▁ayaklanma	-10.3114
▁bildirdi	-10.3114
rul	-10.3114
▁Hırvatistan	-10.3116
▁aşk	-10.3118
lor	-10.3119
▁türlü	-10.3124
▁mahallesi	-10.3126
▁Aşağı	-10.3128
▁yayımladı	-10.3132
▁Önce	-10.3134
▁oluşturmak	-10.3135
▁Almanca	-10.3138
▁yap	-10.3138
▁bakan	-10.3139
▁karakterini	-10.3141
▁gösterdiği	-10.3142
▁rast	-10.3142
▁sorunu	-10.3145
▁Pl	-10.3148
▁not	-10.3153
▁Kazakistan	-10.3155
AP	-10.3159
▁gövde	-10.3161
▁tabanlı	-10.3171
▁Kra	-10.3174
eş	-10.3182
▁oluşturdu	-10.3183
▁stil	-10.3184
▁bırakıldı	-10.3184
gal	-10.3186
▁Bundan	-10.3187
▁amaç	-10.3187
▁Çar	-10.3188
Ne	-10.3191
▁Birlik	-10.3193
в	-10.32
▁çeşit	-10.32
▁klibi	-10.3204
▁öldür	-10.3204
▁okulu	-10.3206
▁Dal	-10.3209
▁bölgelerinde	-10.321
▁ulaşım	-10.3213
▁anı	-10.3216
▁yangın	-10.3217
▁Gro	-10.3219
▁Sto	-10.322
▁eğer	-10.3222
▁Kış	-10.3223
ssa	-10.3224
▁Music	-10.3227
▁Kel	-10.3229
▁Anti	-10.3229
н	-10.3229
tık	-10.3235
field	-10.3235
udur	-10.324
ılabilir	-10.3244
▁sitesi	-10.3244
▁dersleri	-10.3244
▁avcı	-10.3244
▁çalışmalarına	-10.3245
▁figür	-10.3247
▁Murat	-10.3248
▁Kayseri	-10.3252
▁Yukarı	-10.3254
▁tanınır	-10.3255
▁başkanlık	-10.3256
▁edecek	-10.3256
▁kazandığı	-10.326
▁intihar	-10.3264
▁yukarı	-10.3269
▁fabrika	-10.3269
▁ilham	-10.327
▁Arjantin	-10.3271
▁etkileri	-10.3272
▁göstermiştir	-10.3277
▁üstünde	-10.3279
▁play	-10.328
▁kalıntıları	-10.328
tme	-10.3284
lamış	-10.3284
▁Ly	-10.3285
▁Onun	-10.3286
▁oyunculuk	-10.3287
▁Çanakkale	-10.329
▁şarap	-10.3291
jen	-10.3292
▁koşulları	-10.3295
г	-10.33
▁birim	-10.3301
▁sırt	-10.3303
▁Bla	-10.3305
▁Anne	-10.3306
▁Pazar	-10.3307
illa	-10.3308
▁Bilimler	-10.331
▁yaşamış	-10.3315
▁Yugoslavya	-10.3315
ted	-10.332
▁kadınların	-10.3322
▁Komutanlığı	-10.3323
lüğünü	-10.3327
▁Ban	-10.3335
▁Nur	-10.3338
siyon	-10.3343
▁anlamı	-10.3345
ica	-10.3351
▁Sezon	-10.3358
▁insanları	-10.3359
č	-10.3359
lemiştir	-10.336
▁Yarışma	-10.336
▁inşaat	-10.3361
uf	-10.3364
Mar	-10.3366
uç	-10.337
▁görsel	-10.3372
mut	-10.3375
los	-10.3377
▁saygı	-10.3377
▁deneme	-10.3382
▁ortam	-10.3383
▁tutar	-10.3384
▁birinin	-10.3385
▁tarihçi	-10.3387
▁vermesi	-10.339
kâ	-10.3392
teri	-10.3393
▁karşıya	-10.3394
▁İşçi	-10.3394
▁deney	-10.3394
▁attığı	-10.3399
Re	-10.3406
▁içeriği	-10.3408
▁şarkıları	-10.3408
▁Bil	-10.3409
▁Bakü	-10.3409
▁dö	-10.341
▁Bunların	-10.341
Li	-10.3416
▁söylen	-10.3419
▁tarihinin	-10.342
▁solo	-10.3424
mun	-10.3425
Ro	-10.3426
▁Sh	-10.3427
▁grupları	-10.3427
▁meslek	-10.3432
▁One	-10.3434
▁firması	-10.3434
▁şarkının	-10.3435
▁bulunma	-10.3437
▁Altı	-10.344
▁Mersin	-10.3446
▁Show	-10.3447
▁rolünü	-10.3453
▁bölgesel	-10.3454
▁fikri	-10.3454
alı	-10.3456
▁eleştiriler	-10.346
▁elektron	-10.3462
▁Hot	-10.3463
MA	-10.3468
▁koy	-10.3469
▁büyüme	-10.3471
▁sürgün	-10.3471
▁beyin	-10.3472
▁cumhuriyet	-10.3474
pin	-10.3477
tle	-10.3478
▁des	-10.3478
▁yerlerde	-10.3479
▁Kulüp	-10.3481
ر	-10.3483
▁motoru	-10.3488
▁ederler	-10.3488
▁fizik	-10.3492
▁ihtiyacı	-10.3494
▁öde	-10.3497
▁başı	-10.3497
▁layık	-10.3498
▁Tal	-10.3498
▁zemin	-10.35
▁oluşuyordu	-10.3502
▁general	-10.3504
▁otomatik	-10.3504
▁Ağ	-10.3505
▁karşıtı	-10.3509
tos	-10.3509
lly	-10.3509
▁değiştirme	-10.351
▁tesis	-10.3514
▁uyum	-10.3519
▁Sonraki	-10.3522
▁ölen	-10.3525
▁filmleri	-10.3527
TA	-10.3529
▁Jan	-10.353
▁erişim	-10.3536
▁yazmıştır	-10.3536
м	-10.3537
▁evlilik	-10.3537
AC	-10.3539
ob	-10.354
▁Stra	-10.3545
▁geçmesi	-10.3546
▁Parkı	-10.3547
▁bugünkü	-10.3547
▁Türkmen	-10.3552
ction	-10.3562
ğında	-10.3567
▁uzunluğu	-10.3567
▁Nar	-10.3568
▁odak	-10.3569
▁birisidir	-10.357
▁harita	-10.3574
eg	-10.3574
▁gök	-10.3574
▁şart	-10.3575
kara	-10.3575
▁onur	-10.3577
üne	-10.3582
shire	-10.3583
▁öneri	-10.359
tum	-10.359
▁araçları	-10.3591
▁temas	-10.3597
▁Yılın	-10.3599
▁gruba	-10.3601
▁servis	-10.3605
▁Manisa	-10.3605
layıp	-10.3605
▁idaresi	-10.361
▁kategori	-10.3612
▁Çünkü	-10.3614
▁ekonomisi	-10.3618
bot	-10.3619
▁sağlama	-10.3622
▁politikası	-10.3622
▁dağıtıl	-10.3623
ona	-10.3635
dük	-10.3636
dikleri	-10.3637
▁akademik	-10.3643
▁Ag	-10.3643
▁etkinliği	-10.3646
▁bakış	-10.3647
▁değiştirildi	-10.3647
▁Fas	-10.365
▁Kurtuluş	-10.3651
&	-10.3653
ón	-10.3654
tek	-10.3658
▁dönen	-10.3659
▁örneği	-10.366
▁kitabında	-10.366
▁ulus	-10.366
▁Ertesi	-10.3662
▁plak	-10.3665
key	-10.3666
▁stadyum	-10.3668
▁gelecek	-10.367
▁forması	-10.3673
▁pilot	-10.3675
▁varlığını	-10.3676
▁olmasını	-10.3679
▁içermektedir	-10.3683
▁çıkarma	-10.3685
abı	-10.3692
▁Edirne	-10.3693
▁belgesel	-10.3698
▁yaşan	-10.37
▁alanlarda	-10.3703
▁hakkındaki	-10.3707
▁sözleri	-10.371
▁muhalefet	-10.3712
leştir	-10.3714
▁isteme	-10.3718
▁suikast	-10.3719
▁Hükûmeti	-10.372
des	-10.372
▁Prens	-10.3721
▁acı	-10.3722
tem	-10.3724
▁çatışmalar	-10.3729
▁dilinde	-10.3738
▁Air	-10.3739
▁görülme	-10.3742
▁Yerel	-10.3744
▁turizm	-10.3744
era	-10.3745
▁gözü	-10.3746
hü	-10.3747
bro	-10.3747
▁kadro	-10.3748
▁Toplam	-10.3753
▁vilayet	-10.3753
▁fayda	-10.3758
gre	-10.3762
▁Mak	-10.3762
▁oyuncular	-10.3764
▁ligde	-10.3764
▁Jackson	-10.3766
▁herkes	-10.3766
▁paylaş	-10.377
▁Kav	-10.3775
▁maçları	-10.378
▁çekirdek	-10.3781
zon	-10.3781
▁süt	-10.3783
▁Seri	-10.3788
▁Yapı	-10.3789
▁karşılaştı	-10.3789
▁kurduğu	-10.379
▁inan	-10.3793
▁patlama	-10.3793
▁vali	-10.3796
pu	-10.3801
▁Kö	-10.3802
▁çağrı	-10.3803
▁senaryo	-10.3809
day	-10.3811
vol	-10.3812
▁tuz	-10.3815
▁çalışmalarını	-10.3818
sever	-10.3822
▁üyeliği	-10.3822
yip	-10.3826
Bir	-10.3832
▁dışındaki	-10.3832
AR	-10.3832
▁yağış	-10.3837
▁Mari	-10.3847
▁tartış	-10.3848
lma	-10.385
▁kıta	-10.3854
▁bağlantılı	-10.3854
fu	-10.3855
SC	-10.3857
▁gerilim	-10.3859
▁Yahudiler	-10.386
▁potansiyel	-10.3864
▁ayrılmıştır	-10.3869
▁işe	-10.3869
д	-10.387
▁Plat	-10.3871
▁göreve	-10.3871
و	-10.3873
▁yapılmaktadır	-10.3876
▁form	-10.3877
lla	-10.3882
▁basınç	-10.3883
ity	-10.3883
▁kum	-10.3884
hra	-10.3884
▁hizmete	-10.3885
pha	-10.3885
▁site	-10.3886
▁kaybeden	-10.3887
ast	-10.3888
kli	-10.3888
ning	-10.3889
▁Cre	-10.3895
ula	-10.3898
zade	-10.3898
▁COVID	-10.3901
▁kira	-10.3903
amp	-10.3912
▁paralel	-10.3915
▁Dev	-10.3916
▁planı	-10.3918
▁etmeyi	-10.392
▁öğrenme	-10.3923
▁isimleri	-10.3924
▁gelişti	-10.393
▁Not	-10.393
▁Ulu	-10.3933
▁ikna	-10.3934
▁diz	-10.3934
▁Os	-10.3935
▁Gaziantep	-10.3936
▁bayrağı	-10.3939
▁toplumun	-10.394
▁artış	-10.3941
▁endişe	-10.3946
▁WWE	-10.3946
▁AB	-10.3948
▁Afganistan	-10.395
▁oluştur	-10.395
▁çaba	-10.3953
▁Daniel	-10.3953
▁Bankası	-10.3954
▁girdiği	-10.3957
▁Selim	-10.3958
▁Abdullah	-10.396
rd	-10.3961
▁Balkan	-10.3967
▁kişilerin	-10.3968
▁Kaya	-10.3973
▁hizmetleri	-10.3975
▁bırak	-10.3976
▁zamanla	-10.3979
▁Herschel	-10.3981
sam	-10.3981
▁bulur	-10.3985
▁risk	-10.3985
▁Bağ	-10.3988
▁çağdaş	-10.3988
▁ulaşan	-10.3988
▁şiddetli	-10.3995
▁Yusuf	-10.3998
▁durdu	-10.3999
▁SSCB	-10.4
▁arkasında	-10.4
▁coğrafi	-10.4002
▁bekle	-10.4002
▁Ram	-10.4004
▁sorunlar	-10.4005
▁Örgütü	-10.4008
▁çıkardığı	-10.4008
wer	-10.4009
madan	-10.4013
▁hükümdar	-10.4018
▁oran	-10.402
▁North	-10.4021
▁Pakistan	-10.4023
laması	-10.4027
▁Trans	-10.4028
▁geçtiği	-10.4032
▁Tokyo	-10.4033
▁yoğunluğu	-10.4034
hel	-10.4036
▁senesinde	-10.4036
▁güncel	-10.4038
▁Hel	-10.404
▁mali	-10.404
▁Hanım	-10.405
▁hariç	-10.4054
▁görüşme	-10.4058
bes	-10.4062
tıcı	-10.4063
▁Moğol	-10.4063
▁paket	-10.4064
▁deri	-10.4064
iyeti	-10.4068
▁cihaz	-10.4069
üstü	-10.4071
tasyon	-10.4074
▁Spi	-10.4076
▁görevinden	-10.4077
▁dakikada	-10.4081
düğü	-10.4081
▁Kurt	-10.409
▁gösterime	-10.4092
pt	-10.4092
▁çekme	-10.4093
▁bölümünü	-10.4094
▁geleneği	-10.4097
▁belirsiz	-10.4106
Mu	-10.4111
▁altıncı	-10.4111
▁Kongresi	-10.4113
▁kedi	-10.4114
▁Sinema	-10.4115
▁giyen	-10.4118
▁Max	-10.4128
Co	-10.4129
▁gezi	-10.4132
rem	-10.4133
▁Web	-10.4133
▁kutsal	-10.4137
▁tanesi	-10.4138
▁kısmını	-10.4138
▁beden	-10.414
▁golünü	-10.4143
▁denilen	-10.4144
▁cevap	-10.4146
▁tavsiye	-10.4146
▁animasyon	-10.4146
▁Kilise	-10.4148
▁derecesi	-10.4149
iği	-10.4149
tic	-10.415
▁ihti	-10.4151
▁tasar	-10.4155
▁pozisyon	-10.4157
▁Balıkesir	-10.416
▁açma	-10.4163
▁Has	-10.4166
chen	-10.4167
oy	-10.4168
▁bölgesinin	-10.4174
▁Eli	-10.4181
▁yaşındaki	-10.4181
Si	-10.4184
▁düzeyde	-10.4184
▁Mary	-10.4186
▁Muh	-10.4189
▁yardımıyla	-10.4191
▁çekilen	-10.4192
▁sü	-10.4192
▁blok	-10.4193
▁Tre	-10.4194
vers	-10.4195
▁gerçekleştirdi	-10.4198
▁seyirci	-10.42
▁Ten	-10.4201
▁Zelanda	-10.4203
vil	-10.4204
▁dişi	-10.4211
▁cezası	-10.4212
▁depo	-10.4212
▁oynan	-10.4217
zel	-10.4219
ile	-10.4222
▁ajan	-10.4224
▁Entertainment	-10.4224
nal	-10.4226
▁element	-10.4226
▁etkinlik	-10.4233
▁kardeş	-10.4235
uğu	-10.4236
▁Cho	-10.4238
▁Ölüm	-10.4238
▁mağara	-10.4242
▁yetersiz	-10.4242
fik	-10.4244
▁turu	-10.4247
▁American	-10.4249
lamaktadır	-10.4252
ington	-10.4252
▁Hun	-10.4254
▁efsane	-10.4255
▁TRT	-10.4259
▁insanın	-10.426
▁sayılabilir	-10.4261
hur	-10.4261
▁sonuçlar	-10.4264
▁kalıcı	-10.4266
▁olayları	-10.4267
lum	-10.4271
▁kocası	-10.4271
▁yerinde	-10.4274
▁Kut	-10.4276
▁başlaması	-10.4276
▁Mars	-10.4277
▁yakınlarındaki	-10.4277
▁üstün	-10.4278
▁And	-10.4281
▁hazırlanan	-10.4282
lif	-10.4282
daş	-10.4282
▁getir	-10.4283
▁poli	-10.4283
bü	-10.4289
▁Haçlı	-10.429
luğunu	-10.429
▁İskender	-10.4291
▁davran	-10.4294
hard	-10.4296
▁Chicago	-10.4296
▁parlamento	-10.43
▁dar	-10.4302
▁Bölüm	-10.4302
▁Video	-10.4303
ب	-10.4303
üsü	-10.4303
MP	-10.4307
▁cumhurbaşkanı	-10.4307
xi	-10.4307
▁kelimesi	-10.4308
▁Cami	-10.431
ach	-10.4312
ios	-10.4312
etik	-10.4318
giller	-10.4326
▁Ebu	-10.4327
▁bölgedeki	-10.4329
▁listesine	-10.433
▁kütüphane	-10.433
▁şampiyonluk	-10.4336
▁tehlike	-10.4343
▁tanınmış	-10.4348
▁getiren	-10.4349
yıp	-10.4353
çak	-10.4354
▁Tour	-10.4355
say	-10.4355
▁çeviri	-10.4355
▁bundan	-10.4358
▁manastır	-10.4365
▁dizinin	-10.4373
▁sonuçları	-10.4374
▁Koleji	-10.4374
▁kalk	-10.4376
bert	-10.438
▁Komünün	-10.438
▁Federal	-10.4387
▁rakam	-10.4387
▁dışarı	-10.4392
▁sözü	-10.4394
ulmuş	-10.44
tive	-10.4401
▁konuk	-10.4402
▁valisi	-10.4406
▁kendilerine	-10.4409
▁by	-10.441
▁Poli	-10.441
▁değerli	-10.4412
▁dosya	-10.4417
▁Luc	-10.4418
▁atmosfer	-10.4419
▁işleri	-10.4421
▁keşif	-10.443
▁başbakan	-10.4432
SD	-10.4433
▁kapsamlı	-10.4434
▁krizi	-10.4436
ous	-10.4438
▁doku	-10.4439
age	-10.4439
▁reaksiyon	-10.4445
ırken	-10.4448
hil	-10.4449
▁devleti	-10.445
spi	-10.4451
▁müşteri	-10.4452
lediği	-10.4453
▁yönetiminde	-10.4455
▁özgür	-10.4459
▁yaprak	-10.4464
fre	-10.4467
▁Uzay	-10.4467
▁çerçeve	-10.4468
cht	-10.4473
Na	-10.4474
▁organize	-10.4475
▁girişi	-10.4476
▁eğlence	-10.4478
▁Cezayir	-10.4478
▁hayal	-10.4481
▁tanıştı	-10.4483
▁Kanun	-10.4484
▁kapsayan	-10.4487
▁Edebiyat	-10.4488
▁aylarında	-10.4488
▁Gen	-10.4488
hem	-10.4496
▁Mahalle	-10.4499
▁prens	-10.45
▁Kri	-10.45
▁Şen	-10.4506
▁Askeri	-10.4506
▁ardı	-10.451
mişlerdir	-10.4514
▁Lübnan	-10.4514
▁Hall	-10.4525
▁Eskişehir	-10.4525
▁alkol	-10.4527
▁girişimi	-10.4528
red	-10.4531
▁saldırıları	-10.4535
▁yaşamını	-10.4535
▁Topluluğu	-10.4537
▁akademisyen	-10.454
▁jüri	-10.454
▁Gerçek	-10.4544
ome	-10.4546
▁resmen	-10.4551
▁ideal	-10.4552
▁Güreş	-10.4555
maktaydı	-10.4558
▁grafik	-10.4558
rarak	-10.4559
ite	-10.4565
▁Oxford	-10.457
larıdır	-10.457
isti	-10.4574
▁değerlendirme	-10.4575
▁markası	-10.4576
ν	-10.4581
▁kalmış	-10.4581
▁yaşamı	-10.4582
▁olmayı	-10.4587
üp	-10.4594
▁Bri	-10.4596
raz	-10.4597
▁Sey	-10.4597
▁verimli	-10.4598
▁gönüllü	-10.4603
▁mobil	-10.4603
▁kırsal	-10.4608
▁gökada	-10.4615
▁mah	-10.4615
▁olacağını	-10.4615
▁kitapları	-10.4616
▁Bank	-10.4616
▁Çağı	-10.4618
▁SS	-10.4619
▁askerleri	-10.4623
▁tema	-10.4623
▁Green	-10.4624
▁sp	-10.4625
▁çalma	-10.4626
yalı	-10.4628
л	-10.4629
▁endüstrisi	-10.4631
▁Philip	-10.4631
▁kimi	-10.4632
▁bakım	-10.4632
▁anlat	-10.4635
ille	-10.4636
▁Kalkınma	-10.4637
▁tutuk	-10.4637
▁satışa	-10.4639
▁Yaklaşık	-10.4644
▁Tel	-10.4645
▁forvet	-10.4645
cker	-10.4647
lme	-10.4648
▁olacağı	-10.4651
▁ağırlık	-10.4655
▁partisi	-10.4657
▁kanser	-10.466
▁Post	-10.466
▁kafa	-10.4661
IP	-10.4665
▁Kosova	-10.4666
▁Sadece	-10.4667
▁pas	-10.4667
▁Pop	-10.4667
▁otur	-10.4671
▁tabi	-10.4672
ell	-10.4675
AN	-10.4677
ebilen	-10.4679
▁Silahlı	-10.468
▁atış	-10.4682
hri	-10.4685
▁verilmesi	-10.4687
▁with	-10.4689
▁Big	-10.469
▁uygulan	-10.469
▁ürünü	-10.4702
▁söyle	-10.4702
▁vi	-10.4707
pro	-10.4709
▁devrim	-10.4709
tsu	-10.4709
▁suçlu	-10.4712
▁imparatorluk	-10.4715
▁hayran	-10.4717
ο	-10.4719
▁Osmanlılar	-10.472
tura	-10.4722
▁salonu	-10.4728
▁şimdi	-10.4728
▁birden	-10.4729
▁vermeye	-10.473
▁yiyecek	-10.4735
▁Kap	-10.4735
rim	-10.4736
örü	-10.4736
▁diğerleri	-10.4738
well	-10.4739
uri	-10.4739
far	-10.4744
ú	-10.4745
morf	-10.4745
▁sistemler	-10.4751
▁Mit	-10.4753
▁arasına	-10.4753
▁taarruz	-10.4758
▁Dağ	-10.476
kale	-10.4762
▁hükûmetin	-10.4763
▁yılların	-10.4766
▁sundu	-10.4769
▁Mur	-10.4775
▁savaşa	-10.4777
▁işlemci	-10.478
ix	-10.4782
▁Cra	-10.4783
▁kentin	-10.4785
▁mevsim	-10.4787
▁düzenledi	-10.4788
▁$	-10.4788
▁Zen	-10.4791
▁savaşta	-10.4794
▁Mont	-10.4797
ls	-10.4801
▁Cambridge	-10.4802
▁Millet	-10.4805
▁Say	-10.4806
▁baskısı	-10.4809
▁Cemiyeti	-10.481
▁Cy	-10.4811
▁özellikler	-10.4812
▁takıma	-10.4813
▁ima	-10.4817
▁çalışmıştır	-10.4817
▁Gor	-10.4817
▁Münih	-10.4817
▁ülkeleri	-10.4821
▁şüphe	-10.4825
▁programında	-10.4827
▁set	-10.4827
▁çocuklar	-10.4829
rum	-10.4829
ding	-10.4831
▁örnekleri	-10.4833
▁manyetik	-10.4836
▁semt	-10.4837
▁Kastamonu	-10.484
▁bilgileri	-10.484
klarını	-10.4847
▁başlayarak	-10.4847
wood	-10.4848
▁yapılacak	-10.4849
▁Körfezi	-10.4853
▁kimya	-10.4854
matik	-10.4855
▁görülmüştür	-10.4859
ي	-10.4862
kam	-10.4863
▁politikacı	-10.4864
▁okun	-10.4866
▁teklifi	-10.4866
د	-10.487
▁tıbbi	-10.487
▁bireysel	-10.487
▁Bon	-10.4871
kh	-10.4874
▁kaleme	-10.4875
▁Yazı	-10.4876
▁maddesi	-10.4881
▁Cap	-10.4881
▁birimleri	-10.4883
zy	-10.4886
▁Hill	-10.4887
▁kazanarak	-10.4887
▁askerler	-10.4887
▁du	-10.4889
▁ertesi	-10.4897
▁olayı	-10.4899
▁Yardımcısı	-10.4899
▁İmparatorluk	-10.49
▁iktidar	-10.4903
DP	-10.4904
▁gösterilmiştir	-10.4906
▁International	-10.4907
▁faaliyetleri	-10.491
▁albümde	-10.4911
▁yönetme	-10.4912
vir	-10.4915
▁kare	-10.4915
malı	-10.4915
▁komünist	-10.4918
▁hidro	-10.4919
▁ayrım	-10.4921
ografi	-10.4923
▁kapasitesi	-10.4935
▁Bunlardan	-10.4939
▁Yayın	-10.4941
▁öldürme	-10.4943
▁kuralları	-10.4945
dom	-10.4945
▁açıkça	-10.4948
▁uyarı	-10.495
dge	-10.4953
▁binlerce	-10.4956
sus	-10.4957
▁National	-10.4957
▁aylık	-10.4959
▁giymektedir	-10.4959
▁yıldır	-10.4959
liğinin	-10.4962
▁gerekçesiyle	-10.4962
ons	-10.4963
▁Bat	-10.4969
▁yendi	-10.4969
▁Real	-10.4975
out	-10.4975
▁Koca	-10.4976
▁uyan	-10.4976
▁Harry	-10.4977
▁evi	-10.498
▁performansı	-10.4983
▁etkiler	-10.499
▁Nüfusu	-10.4993
ë	-10.4997
▁oyunlar	-10.4999
win	-10.5001
▁matematik	-10.5003
▁Pat	-10.5007
mm	-10.5011
vat	-10.5013
mba	-10.5015
sko	-10.5023
▁maden	-10.5023
sy	-10.5024
▁onunla	-10.5025
stri	-10.5028
▁dönemlerde	-10.503
leştirilmiş	-10.5033
▁özgün	-10.5034
▁Kafkasya	-10.5034
▁değişikliği	-10.5036
▁tabaka	-10.5039
▁Belarus	-10.5039
▁Android	-10.5047
▁İmparatoru	-10.5048
▁Bol	-10.5049
ere	-10.5051
▁izleyici	-10.5052
▁görüşü	-10.5053
▁yetki	-10.5056
Türk	-10.5056
▁taşır	-10.506
abilmek	-10.5063
undan	-10.5066
▁otel	-10.5067
örneğin	-10.5072
▁inancı	-10.5075
jin	-10.5076
▁Anayasa	-10.5076
▁soylu	-10.5076
Po	-10.5077
▁ağırlıklı	-10.5077
▁Sistemi	-10.5077
▁Nor	-10.5079
▁Oto	-10.5082
▁bölümleri	-10.5085
▁disiplin	-10.5086
▁senarist	-10.5086
▁Görev	-10.5088
▁anlatır	-10.5089
gil	-10.509
▁Arabistan	-10.509
▁Day	-10.5092
▁füze	-10.5094
▁vererek	-10.5096
▁Olay	-10.5096
▁akıl	-10.5096
NA	-10.5101
lıkla	-10.5103
▁anlaşması	-10.5104
▁ettikleri	-10.5105
▁istediği	-10.5108
▁Sakarya	-10.5109
▁aileden	-10.5115
▁materyal	-10.5117
▁vatandaşları	-10.5118
cılığı	-10.5118
▁baz	-10.512
cısı	-10.5122
▁mil	-10.5123
▁parçasıdır	-10.5124
qua	-10.5125
▁tatlı	-10.5125
▁Gençlik	-10.5129
▁bulunuyordu	-10.5131
▁Rey	-10.5141
▁kariyeri	-10.5148
▁Seçim	-10.5153
▁birer	-10.5156
▁enfeksiyon	-10.5157
▁Polis	-10.5158
kas	-10.516
▁İskoçya	-10.5161
▁değerlendiril	-10.5164
atör	-10.5165
▁süreli	-10.517
metre	-10.5176
▁meta	-10.5177
▁+	-10.5177
▁Spe	-10.5178
▁bağımsızlığını	-10.5178
▁festival	-10.5178
ple	-10.518
▁kalması	-10.5183
tia	-10.5188
▁has	-10.519
▁macera	-10.5192
▁memur	-10.5193
ello	-10.5193
ebilecek	-10.5194
▁Anna	-10.5196
▁kimlik	-10.5196
▁akımı	-10.5199
ort	-10.52
▁çevresi	-10.5204
▁pist	-10.5206
▁konuşan	-10.5207
▁Gel	-10.5211
▁ulaşıl	-10.5212
▁satan	-10.5218
▁Mut	-10.5218
▁değiş	-10.5219
▁Albümün	-10.5219
▁ağı	-10.5227
▁iyon	-10.523
soy	-10.5238
▁şarkılar	-10.5238
▁şarkıyı	-10.5238
▁dağılımı	-10.5239
▁anahtar	-10.524
Konstantinopolis	-10.524
▁Tat	-10.524
▁Prix	-10.5241
▁kariyerini	-10.5241
▁devri	-10.5242
▁Company	-10.5243
▁yönet	-10.5246
▁Hastanesi	-10.5247
rie	-10.5261
▁karşılaşma	-10.5263
▁usta	-10.5264
▁belirtir	-10.5266
▁davranış	-10.5268
Ko	-10.5269
▁yetiştiril	-10.5275
▁yapımcısı	-10.5276
▁maliyet	-10.5277
▁getirir	-10.5279
ug	-10.528
▁savaşçı	-10.5285
▁Bilgi	-10.5289
▁Sanayi	-10.5291
▁düşen	-10.5292
▁öğrenciler	-10.5292
▁Erkekler	-10.5294
leşmiş	-10.5294
▁serisinin	-10.5296
▁tutuklandı	-10.5298
▁yakınında	-10.5298
pir	-10.53
▁organ	-10.5309
▁Leon	-10.5309
▁Tak	-10.5309
▁bildiri	-10.531
▁filozof	-10.531
ksiyon	-10.5312
phi	-10.5322
▁Boz	-10.5324
▁drama	-10.5325
▁kule	-10.5327
▁=	-10.5334
▁Lord	-10.5335
▁Teknoloji	-10.5335
▁terfi	-10.5335
▁Suudi	-10.5338
BA	-10.5339
▁vermiş	-10.534
▁Orman	-10.534
Türkçe	-10.5341
▁söyleme	-10.5341
sek	-10.5343
lıklar	-10.5346
▁Orhan	-10.5346
▁fon	-10.5349
▁töreni	-10.535
▁baraj	-10.5352
elle	-10.5356
▁gereği	-10.5358
hit	-10.5359
▁bulunmaktaydı	-10.5361
med	-10.5361
▁donanım	-10.5362
▁Harp	-10.5364
▁geliştirdi	-10.5366
▁Sab	-10.5367
▁gitme	-10.5368
▁dağı	-10.5369
oc	-10.5371
ore	-10.5372
▁alet	-10.5372
▁uyumlu	-10.5373
gerçekleştirildi	-10.5374
▁Brown	-10.5375
▁değiştir	-10.5376
▁sunul	-10.5377
▁Soy	-10.5378
olo	-10.5382
▁üste	-10.5383
▁yalnız	-10.5383
gör	-10.5384
meyi	-10.5388
▁BBC	-10.5389
leridir	-10.5389
▁görünür	-10.5391
▁Erdoğan	-10.5391
▁hakimiyeti	-10.5393
▁yüzyıldan	-10.5396
▁yönde	-10.5396
▁bağlandı	-10.5398
Or	-10.5399
▁milliyetçi	-10.5406
▁yayıncı	-10.5407
▁Aşk	-10.5411
▁sıradan	-10.5411
▁CD	-10.5415
▁oluşumu	-10.5418
▁buhar	-10.5421
­	-10.5423
▁tarz	-10.5423
▁mümkündür	-10.543
▁uygulamalar	-10.543
▁müzikal	-10.5431
▁atıfta	-10.5435
lerce	-10.5438
▁Sor	-10.5442
▁Des	-10.5444
luğun	-10.5447
▁kilo	-10.5451
▁kaynaklar	-10.5453
▁uğraş	-10.5454
▁talebi	-10.5455
kır	-10.5457
▁Pir	-10.5457
▁halkının	-10.5457
▁kıyasla	-10.546
▁af	-10.5461
▁Alexander	-10.5463
▁Live	-10.5468
▁rahat	-10.547
▁Santa	-10.5471
kür	-10.5472
kop	-10.5472
▁foto	-10.5473
ktaydı	-10.5475
rac	-10.5483
▁Gece	-10.5487
▁kuvveti	-10.5487
▁Bütün	-10.5487
▁geçme	-10.5488
tom	-10.5492
▁ırk	-10.5493
▁finalinde	-10.5495
▁izleme	-10.5496
▁doğmuştur	-10.5496
▁Dış	-10.5498
▁kere	-10.5503
▁orkestra	-10.5503
▁yükselme	-10.5506
▁edilerek	-10.5508
▁alıyor	-10.551
mü	-10.5512
▁Annesi	-10.5513
▁koloni	-10.5519
▁şampiyona	-10.5525
▁topraklarında	-10.5526
▁kristal	-10.5528
ette	-10.5528
▁köyde	-10.5529
▁Slav	-10.5532
▁Mezarlığı	-10.5535
▁Sand	-10.5538
izasyon	-10.554
▁Cup	-10.5541
▁Doğan	-10.5543
▁ilerleyen	-10.5544
▁Başlangıçta	-10.5549
▁Rize	-10.5549
rad	-10.5552
▁ondan	-10.5554
ρ	-10.556
▁adının	-10.5562
▁takımları	-10.5564
▁NATO	-10.5565
▁Malatya	-10.5565
▁tel	-10.5566
▁piyasa	-10.5568
▁pencere	-10.5569
▁piyade	-10.5569
▁çeken	-10.5574
▁makam	-10.5575
por	-10.5576
▁genetik	-10.5578
fon	-10.5588
▁tarafı	-10.5588
▁padişah	-10.5589
ric	-10.5592
▁anlayışı	-10.5594
▁tekniği	-10.5595
▁Pal	-10.5596
▁Laz	-10.5596
▁Bağdat	-10.5597
▁Marmara	-10.5597
▁ulaşma	-10.5598
▁terör	-10.5604
▁Kanal	-10.5605
▁Ele	-10.5605
▁Vietnam	-10.5605
▁gücünü	-10.5609
malıdır	-10.5609
▁çeyrek	-10.561
pon	-10.5612
▁Ey	-10.5612
had	-10.5614
▁sürüm	-10.5616
▁yapılar	-10.5617
▁maçın	-10.5621
▁tarihindeki	-10.5623
▁tasarlanmış	-10.5625
▁hep	-10.5628
sul	-10.563
kçe	-10.5636
▁ücretsiz	-10.5637
▁tutma	-10.5642
▁yağma	-10.5644
▁sağlamıştır	-10.5646
▁çevrimiçi	-10.5647
▁Cem	-10.5648
▁kariyerinde	-10.5648
▁evrim	-10.5652
▁olmaktadır	-10.5655
▁seçilmiş	-10.5656
lf	-10.5659
iv	-10.5662
▁albümünde	-10.5664
▁topluluğu	-10.5664
▁donanması	-10.5666
▁kullanılmaya	-10.5666
▁Bunu	-10.5668
▁başladılar	-10.5674
br	-10.5675
heim	-10.5675
▁Elizabeth	-10.5675
▁tarif	-10.5678
▁Grubun	-10.5678
ن	-10.5679
▁güvenliği	-10.5681
▁partinin	-10.5684
▁Hizmet	-10.5684
Di	-10.5688
▁Saray	-10.5691
▁Gri	-10.5692
▁Çalışma	-10.5693
âl	-10.5694
ms	-10.5694
▁görevlisi	-10.5696
▁sektör	-10.5697
▁üyelerinin	-10.5697
▁kazanmış	-10.5701
▁oymağına	-10.5704
▁Nobel	-10.5704
▁Ran	-10.5705
lanıp	-10.5707
▁denklem	-10.5714
▁Royal	-10.5714
▁oluşturmaktadır	-10.5716
▁bölgeyi	-10.5718
▁Yarımadası	-10.5721
▁boyun	-10.5723
▁noktada	-10.5725
▁yükselen	-10.5725
▁yaşar	-10.5726
Do	-10.5728
▁Bru	-10.5729
▁sıcaklığı	-10.5732
▁araştır	-10.574
▁tanıma	-10.5741
▁koşullar	-10.5743
▁Tim	-10.5743
▁kitle	-10.5745
▁üre	-10.5746
▁Ap	-10.5747
▁biçiminde	-10.5747
▁Die	-10.5748
▁Eş	-10.5748
ilerek	-10.5749
▁parçalar	-10.575
▁Mir	-10.5753
name	-10.5753
▁ayrılması	-10.5757
▁bayrak	-10.5759
▁otorite	-10.5763
▁Mas	-10.5763
▁çocukların	-10.5766
▁bulunmuş	-10.5768
inger	-10.5769
▁değişikliğinden	-10.5775
nen	-10.5776
▁sağlam	-10.5777
▁topluluk	-10.5779
▁kullanılma	-10.578
▁duruma	-10.5781
▁gri	-10.5781
gur	-10.5782
▁önlemek	-10.5782
▁harekete	-10.5784
▁Sanatlar	-10.5786
▁Motor	-10.5786
▁Dor	-10.5791
▁otobüs	-10.5792
üdür	-10.5795
▁Opera	-10.5796
▁soruşturma	-10.5796
▁ayrılarak	-10.5796
▁Sil	-10.5797
ges	-10.5797
▁büyüdü	-10.5799
▁kurt	-10.5802
hol	-10.5804
▁fiyat	-10.5809
▁Mes	-10.5812
▁zamanı	-10.5817
▁ihlal	-10.5817
▁Will	-10.5821
▁edebilir	-10.5829
▁rolünde	-10.5832
uyla	-10.5833
▁Dia	-10.5836
▁rakip	-10.5836
▁alınarak	-10.5837
stein	-10.584
▁anlamında	-10.5842
▁kaleci	-10.5844
▁Ji	-10.5845
▁Kum	-10.5849
▁Kars	-10.5851
▁tanındı	-10.5854
▁men	-10.5856
▁kaba	-10.5858
▁bilimi	-10.5858
▁günümüz	-10.5866
▁yarım	-10.5869
▁değiştirdi	-10.5869
resi	-10.5871
°	-10.5873
▁evlenme	-10.5876
▁kökeni	-10.5879
ings	-10.588
▁suyun	-10.588
▁hayata	-10.5885
▁tören	-10.5888
▁Kongre	-10.5889
▁bebek	-10.5889
dî	-10.5893
▁Polonyalı	-10.5894
▁Eser	-10.5894
▁eğ	-10.5894
▁farkı	-10.5895
▁takımda	-10.5898
laşan	-10.5899
▁kullanmak	-10.5899
▁tayin	-10.5901
▁düşer	-10.5904
iki	-10.5906
▁ahşap	-10.591
▁kazanma	-10.5913
▁Şampiyon	-10.5914
▁Öte	-10.5919
▁Times	-10.5919
▁Pasifik	-10.5922
▁Şili	-10.5923
▁başlıklı	-10.5925
▁kaçtı	-10.5927
sak	-10.5929
▁Ash	-10.593
▁Scott	-10.5931
▁dikkate	-10.5933
▁kurumu	-10.5934
▁antlaşma	-10.5934
▁kemik	-10.5935
lov	-10.5936
eo	-10.5938
▁hükümdarı	-10.594
mos	-10.5941
▁istasyon	-10.5947
▁simge	-10.5949
▁Mat	-10.595
wen	-10.5951
▁uğradı	-10.5952
▁olabileceği	-10.5952
likle	-10.5953
sür	-10.5955
▁sığın	-10.5955
▁bez	-10.5961
▁bahçe	-10.5962
▁boyutlu	-10.5965
▁mensup	-10.5966
▁arasındadır	-10.5966
▁sunuldu	-10.5967
▁Takımı	-10.5967
▁arttı	-10.5969
▁doğrultusunda	-10.5969
lemiş	-10.5971
▁vefat	-10.5978
via	-10.598
all	-10.598
▁ayrılan	-10.5983
▁Dam	-10.5984
▁Yılmaz	-10.5987
▁Pala	-10.5988
▁yüzyıla	-10.599
▁Fen	-10.5992
kça	-10.5993
▁Kas	-10.5993
ign	-10.5994
▁anlatan	-10.5997
▁Şeyh	-10.5998
▁ters	-10.5999
▁Karşı	-10.6002
liyor	-10.6003
pus	-10.6007
▁Sho	-10.6009
▁inanç	-10.6011
▁ediyordu	-10.6013
▁halen	-10.6015
▁Birkaç	-10.6016
▁ürünler	-10.6018
▁süreçte	-10.602
▁Çerkes	-10.6022
▁komuta	-10.6023
▁Kul	-10.6024
rah	-10.6028
▁arı	-10.6031
▁Tunus	-10.6033
▁epi	-10.6034
▁yürüyüş	-10.6037
▁sorgu	-10.6039
▁katılmış	-10.6043
▁Başka	-10.6046
▁teknolojisi	-10.6055
▁ideoloji	-10.6056
▁albümüdür	-10.6057
▁birlikler	-10.6058
▁sesi	-10.6061
▁alıp	-10.6067
▁Bölgesel	-10.6071
ū	-10.6072
▁Okyanusu	-10.6072
▁alana	-10.6075
▁Pek	-10.6076
▁nispeten	-10.608
▁karanlık	-10.6085
▁formasını	-10.6086
mini	-10.6091
▁Amatör	-10.6092
▁kabile	-10.6092
▁frekans	-10.6093
rio	-10.6094
RNA	-10.6097
▁sonuçlandı	-10.6098
Ca	-10.6099
▁boyutu	-10.6103
▁devir	-10.6103
vu	-10.6104
mor	-10.6108
▁Wei	-10.6108
meyen	-10.611
▁tarihine	-10.611
ე	-10.611
laşmış	-10.6113
▁çoğunu	-10.6116
▁puanla	-10.6117
ife	-10.6118
▁zamana	-10.6118
▁yöneticisi	-10.6122
ırlar	-10.6124
abilmesi	-10.6125
▁araçlar	-10.6135
tab	-10.6139
▁Okul	-10.6143
TV	-10.6143
▁çiz	-10.6144
▁başlanmıştır	-10.6144
▁Caddesi	-10.6145
▁pozitif	-10.6145
▁belirlemek	-10.6148
▁kayıp	-10.6149
şir	-10.615
▁koşul	-10.6151
lenmektedir	-10.6153
▁sosyalist	-10.6154
gli	-10.6161
ço	-10.6161
▁Cur	-10.6162
▁olmaları	-10.6163
▁şeyi	-10.6166
ullah	-10.6167
▁Göz	-10.6168
▁Küba	-10.617
▁çök	-10.6172
▁rekor	-10.6173
▁Rusça	-10.6173
ita	-10.6173
▁sö	-10.6176
▁güvenli	-10.6177
▁bol	-10.6189
▁tri	-10.6198
▁Kazak	-10.62
▁yarısı	-10.6202
▁ticareti	-10.6203
▁getirme	-10.6208
alist	-10.6209
▁alanlarında	-10.6209
laşması	-10.6212
▁Yasa	-10.6213
▁akşam	-10.6219
▁geldiğinde	-10.6219
hisar	-10.622
▁daire	-10.6223
▁bulmak	-10.6229
▁Ir	-10.6229
▁Devletler	-10.6229
yel	-10.6234
▁düzeni	-10.6236
▁sayede	-10.6237
▁tamamlandı	-10.6239
▁Vadisi	-10.6241
pik	-10.6246
▁hesaplama	-10.6247
▁anılan	-10.6248
▁kişiye	-10.6249
▁Gü	-10.6252
▁konuda	-10.6252
eğin	-10.6253
SK	-10.6258
ound	-10.6259
▁başlangıç	-10.6266
ars	-10.6266
▁Stalin	-10.6267
vit	-10.6267
▁Ang	-10.6268
▁yuva	-10.6271
ory	-10.6272
üt	-10.6272
▁maddeler	-10.6275
▁şehrinin	-10.6275
▁küre	-10.6278
▁süvari	-10.628
▁böl	-10.6281
▁Musa	-10.6285
▁felsefesi	-10.6285
▁olmuştu	-10.6286
▁Ceza	-10.6287
▁öldürülmesi	-10.6291
ğe	-10.6292
▁zorla	-10.6292
ato	-10.6293
▁Asyalı	-10.6293
▁Bart	-10.6297
▁düş	-10.6297
▁Estonya	-10.6302
Hersek	-10.6306
▁kanalında	-10.6306
▁Manchester	-10.6306
▁dövüş	-10.6306
▁kısaca	-10.6308
▁düşmesi	-10.6308
▁Ph	-10.6314
▁albümünü	-10.6316
▁sağlığı	-10.6318
▁işlev	-10.632
▁zamanlı	-10.632
▁kaynaklarda	-10.6322
▁çık	-10.6323
▁bağımsızlık	-10.6324
▁hali	-10.6328
▁alfabesi	-10.6332
▁saldır	-10.6333
yorlardı	-10.6337
ışma	-10.6338
ağın	-10.6343
▁katman	-10.6344
hn	-10.6344
ettin	-10.6345
▁VI	-10.6346
▁dayanmaktadır	-10.6346
▁Friedrich	-10.6351
▁oğulları	-10.6353
▁bakteri	-10.6353
ré	-10.6355
▁Çevre	-10.6355
▁Donanması	-10.6359
▁düşür	-10.6366
▁rolüyle	-10.6367
▁Club	-10.6369
ffe	-10.637
stro	-10.6371
▁olmaması	-10.6371
▁ölç	-10.6371
▁atma	-10.6374
▁değişen	-10.6374
ل	-10.6377
ilebilir	-10.6382
yerek	-10.6382
▁üstlendiği	-10.6386
▁varsa	-10.6389
lamaya	-10.6389
▁Inter	-10.6389
▁eşya	-10.6391
▁sıkıntı	-10.6391
▁Sü	-10.6395
işi	-10.6396
▁Çeşitli	-10.6399
▁amatör	-10.6401
▁yaparken	-10.6402
baba	-10.6402
amayan	-10.6404
▁aktivite	-10.6404
Rus	-10.6407
▁sistemin	-10.6407
▁mineral	-10.6408
▁katılım	-10.6411
▁Kab	-10.6412
▁Nico	-10.6418
ico	-10.6418
▁Simon	-10.6421
▁korunması	-10.6421
▁fosil	-10.6422
klerini	-10.6423
▁organı	-10.6423
ι	-10.6426
▁yetiş	-10.643
▁pul	-10.6431
cent	-10.6434
▁kongre	-10.6441
▁belde	-10.6441
▁kayıtları	-10.6441
▁nadir	-10.6442
ruk	-10.6444
▁çekici	-10.6445
are	-10.6446
▁destekleyen	-10.6447
EC	-10.6448
▁Tepe	-10.6449
II	-10.645
▁masa	-10.6452
▁oyuna	-10.6459
▁gitarist	-10.646
▁salon	-10.6461
▁bellek	-10.6462
▁Belediyespor	-10.6464
▁Sinan	-10.6464
▁koleksiyon	-10.6469
şer	-10.6477
▁girmiş	-10.6477
fra	-10.6478
baz	-10.6479
org	-10.6479
▁Tarım	-10.6482
▁hareketleri	-10.6485
▁Artvin	-10.6485
▁Kanunu	-10.6486
▁çarpışma	-10.6489
▁alacak	-10.6493
▁Toprak	-10.6495
▁gelişmesi	-10.6495
▁üreticisi	-10.6496
▁kuşat	-10.6496
▁akışı	-10.6497
üş	-10.6497
▁modelleri	-10.6501
▁edebi	-10.6502
▁formu	-10.6507
▁hâlâ	-10.6507
▁sembol	-10.6511
ces	-10.6511
▁açar	-10.6513
▁aşağıdaki	-10.6513
▁açılmıştır	-10.6514
▁röportaj	-10.6514
mediği	-10.6514
▁mahkûm	-10.6515
nç	-10.6518
▁Gemi	-10.6518
Lo	-10.6519
▁CHP	-10.6527
▁Buffy	-10.6529
sındaki	-10.6532
ctor	-10.6533
▁kenar	-10.6535
▁voleybol	-10.6538
▁Cin	-10.6539
▁Parlamentosu	-10.6539
▁yönetil	-10.6552
▁gelindiğinde	-10.6556
hara	-10.6556
▁müdürü	-10.6557
▁Hoca	-10.6561
▁topu	-10.6562
▁eksik	-10.6565
▁edici	-10.6567
τ	-10.657
ović	-10.6571
▁Vali	-10.6575
Ra	-10.6587
▁Hat	-10.6591
▁Radyo	-10.6593
▁Epi	-10.6594
▁enerjisi	-10.6595
▁oranda	-10.66
▁olsun	-10.6601
▁Hazar	-10.661
mine	-10.6611
▁birini	-10.6612
▁Üst	-10.6614
▁Zu	-10.6617
▁gelenek	-10.6618
ojen	-10.6621
▁Sıra	-10.6622
ES	-10.6623
star	-10.6625
▁karşılıklı	-10.6627
▁Sav	-10.6629
▁Çinli	-10.663
▁yüksekliği	-10.6633
▁soy	-10.6641
lendirdi	-10.6642
▁pay	-10.6643
▁Temel	-10.6646
▁asla	-10.6649
▁Mimar	-10.6649
▁İm	-10.6651
▁bulma	-10.6652
▁elçi	-10.6655
▁topraklarına	-10.6655
*	-10.6656
▁İçişleri	-10.6656
▁Fizik	-10.6657
▁Ün	-10.6657
▁Karadağ	-10.666
▁Özerk	-10.666
▁College	-10.6665
▁ifadesi	-10.6665
iti	-10.6666
▁İnternet	-10.6669
▁kulübün	-10.667
▁Williams	-10.667
▁Aile	-10.6673
▁pil	-10.6675
▁fil	-10.6676
▁öğreti	-10.6678
▁hapse	-10.668
▁karışık	-10.6682
▁hücum	-10.6683
▁Kazan	-10.6684
▁Klasik	-10.6688
▁saldırıya	-10.6689
▁harf	-10.669
▁çekim	-10.6693
▁ot	-10.6693
▁Kuş	-10.6698
▁sözcük	-10.67
▁liderleri	-10.6701
▁Ekonomi	-10.6701
▁müttefik	-10.6704
▁olduğunda	-10.6708
▁per	-10.671
▁EP	-10.671
PC	-10.6712
geç	-10.6716
▁amaçla	-10.6722
tions	-10.6723
▁açan	-10.6724
▁geçir	-10.6725
aka	-10.6728
▁Joe	-10.6729
meden	-10.673
gy	-10.6732
▁yedinci	-10.6734
س	-10.6738
vas	-10.6738
▁saldırdı	-10.6739
▁belirti	-10.674
▁başvuru	-10.6741
▁taşın	-10.6742
▁geriye	-10.6742
▁Nokia	-10.6743
▁orduları	-10.6744
kri	-10.6749
▁eleştirmen	-10.6749
▁çalışmaktadır	-10.6751
AT	-10.6756
▁yürütme	-10.6759
▁akıllı	-10.676
▁Reg	-10.6763
▁besin	-10.6765
▁dayanır	-10.6766
▁anılır	-10.6767
amamıştır	-10.6769
▁belirtmiştir	-10.6771
▁kurmak	-10.6772
▁görülebilir	-10.6774
▁ayrılmış	-10.6775
▁Tür	-10.6776
▁yaralandı	-10.6779
▁Cel	-10.6781
sav	-10.6781
▁hayvanlar	-10.6784
▁boru	-10.6784
▁Kam	-10.6787
▁Alaska	-10.679
▁kullanıl	-10.6791
▁yoktu	-10.6791
▁adları	-10.6795
▁oldular	-10.6796
▁mekanik	-10.6797
SP	-10.6798
▁sıfır	-10.6798
▁Hans	-10.6799
▁alınma	-10.6799
▁Mad	-10.6801
▁Tokat	-10.6802
б	-10.6803
▁çözü	-10.6805
sindeki	-10.6806
▁Kong	-10.6806
iyo	-10.6807
wo	-10.6809
▁Bill	-10.681
sunda	-10.6813
▁yönü	-10.6813
▁sütun	-10.6813
zam	-10.6818
▁Les	-10.682
▁kapısı	-10.6823
▁filminin	-10.6823
▁Kütahya	-10.683
dılar	-10.6834
▁tüfek	-10.6835
▁Cro	-10.6837
▁tez	-10.6838
ł	-10.684
▁Trabzonspor	-10.684
▁açtığı	-10.6841
▁kazanması	-10.6845
▁bölgeler	-10.6851
▁Türkler	-10.6853
▁It	-10.6853
▁yerleşme	-10.6853
▁Kamu	-10.6854
▁yayla	-10.6854
tina	-10.6857
abileceğini	-10.6858
▁Adı	-10.6859
özü	-10.6859
▁olduklarını	-10.6862
▁maddi	-10.6863
▁hidrojen	-10.6863
▁verilmiş	-10.6866
▁mutlak	-10.6868
▁gittiği	-10.687
▁sonlarına	-10.687
rop	-10.6871
lemesi	-10.6872
▁hit	-10.6873
▁ağacı	-10.6873
▁mono	-10.6879
▁görevli	-10.6883
▁değerleri	-10.6883
▁vatandaş	-10.6884
metrik	-10.6884
▁tüccar	-10.6886
▁birbirinden	-10.6888
▁(%	-10.689
dim	-10.689
▁geliştirilmesi	-10.6892
▁kraliyet	-10.6898
▁değerlendir	-10.6899
▁defans	-10.6901
▁suçlama	-10.6902
▁edilebil	-10.6902
▁açılış	-10.6903
▁Yüz	-10.6903
▁eyaletine	-10.6903
▁bilme	-10.6906
line	-10.6907
▁Mahallesi	-10.6908
▁artması	-10.6911
▁Nas	-10.6911
▁dolaş	-10.6913
▁okulun	-10.6913
▁savun	-10.6914
▁hatları	-10.6914
▁eriş	-10.6916
▁topladı	-10.6919
▁canlandırdı	-10.6921
ی	-10.6924
▁Oğuz	-10.6924
▁bireyler	-10.6928
iller	-10.6929
şit	-10.6931
▁yazıları	-10.6932
▁milli	-10.6936
▁geliştirilmiş	-10.6937
▁demokrasi	-10.6938
▁yaşta	-10.6942
п	-10.6942
▁Mahmud	-10.6942
▁yöntemleri	-10.6944
▁savundu	-10.6944
▁roket	-10.6947
▁çay	-10.695
▁ziyade	-10.6952
▁sahte	-10.6956
▁sistemine	-10.6957
▁kamuoyu	-10.6962
▁Erken	-10.6962
GB	-10.6966
▁alınır	-10.6966
▁azınlık	-10.6967
▁Francisco	-10.6967
fil	-10.697
▁Televizyon	-10.6971
▁hediye	-10.6971
▁Dol	-10.6974
▁Wood	-10.6977
▁yönetti	-10.6977
SE	-10.6979
▁Prusya	-10.698
▁Allah	-10.698
▁şansı	-10.6984
▁AK	-10.6984
▁icra	-10.6986
uch	-10.6988
▁Kraliçe	-10.6989
▁çalın	-10.6993
ew	-10.6995
▁miktar	-10.6995
▁araştırmacı	-10.6998
leşir	-10.7
och	-10.7001
▁Altay	-10.7001
▁bağlantısı	-10.7002
▁geçiren	-10.7004
▁ikiye	-10.7004
▁içeriyordu	-10.7005
▁kaldırıldı	-10.7007
▁yetişkin	-10.7007
▁zırhlı	-10.701
▁Kaz	-10.7012
▁fabrikası	-10.7015
trop	-10.7015
▁devamı	-10.7016
▁Bö	-10.7018
pel	-10.7026
öğretim	-10.7039
▁kont	-10.7046
▁Günü	-10.7046
▁DVD	-10.7046
▁Avrupalı	-10.7046
mbo	-10.7048
▁diplomatik	-10.705
DS	-10.7051
▁ilçesinin	-10.7053
▁uygulanan	-10.7054
▁Yıldırım	-10.7055
▁bırakma	-10.7059
▁Lise	-10.706
▁Yakın	-10.7064
tica	-10.7065
▁God	-10.7067
ér	-10.7068
▁ağzı	-10.707
gos	-10.7073
▁gelişmeler	-10.7073
▁Hırvat	-10.7074
▁çıkarıldı	-10.7075
▁mevki	-10.7077
▁Ford	-10.7079
▁getirdiği	-10.7079
tsch	-10.7082
PA	-10.7083
Mi	-10.7083
▁Ateş	-10.7083
▁halife	-10.7086
▁Kupa	-10.7088
▁ayırt	-10.7089
▁çekilmesi	-10.7089
▁Ses	-10.7091
▁Life	-10.7091
dro	-10.7093
▁August	-10.7093
▁yazısı	-10.7095
з	-10.7098
▁Hareket	-10.7099
▁önemlidir	-10.7101
▁parmak	-10.7101
MS	-10.7103
▁ulaşmıştır	-10.7106
LA	-10.7109
▁moda	-10.7115
▁üzüm	-10.7121
▁net	-10.7121
▁söylemiştir	-10.7121
qu	-10.7122
kom	-10.7126
▁kuvvetlerinin	-10.7129
▁Başbakanı	-10.713
kut	-10.713
▁İbn	-10.7134
▁tedavisi	-10.7139
▁kişiyi	-10.714
=	-10.7146
▁hedefi	-10.7146
▁riski	-10.7148
▁canlandırdığı	-10.7149
▁mezunudur	-10.715
▁Raw	-10.715
▁mühendis	-10.7152
▁Ailesi	-10.7153
▁sistemini	-10.7158
▁ölçüm	-10.7164
▁Hong	-10.7164
▁gelişim	-10.7165
▁yıkıl	-10.7165
▁hikâyesi	-10.7165
▁kesme	-10.7165
▁şarkısıyla	-10.7167
pal	-10.7168
▁çalışırken	-10.7169
▁Il	-10.7171
DA	-10.7171
masından	-10.7173
▁seçti	-10.7173
▁çevir	-10.7174
▁mülk	-10.7177
▁kategorisinde	-10.7177
▁Qua	-10.718
zim	-10.7182
▁sattı	-10.7183
cc	-10.7184
▁direktörü	-10.7184
▁Sicilya	-10.7184
▁Nes	-10.7189
▁kurtarma	-10.719
▁açısı	-10.7191
uyor	-10.7194
▁kasabası	-10.7195
▁Young	-10.7198
▁Albümde	-10.7199
▁kapatıl	-10.72
pri	-10.7201
▁tartışmalar	-10.7202
ilme	-10.7204
▁çıkarılan	-10.7205
gö	-10.7206
▁platformu	-10.7207
nova	-10.7212
ılıp	-10.7212
▁White	-10.7213
▁sürecinde	-10.7213
▁Kocaeli	-10.7215
▁istihbarat	-10.7218
▁kararlı	-10.7218
muz	-10.7223
▁çatı	-10.7227
ebileceği	-10.7227
▁göster	-10.7229
lop	-10.7233
▁bölgesindeki	-10.7235
▁mücadelesi	-10.7236
▁aralık	-10.7238
▁analizi	-10.7238
▁Halep	-10.7239
▁hoş	-10.724
▁liberal	-10.7242
leşen	-10.7243
▁Yedi	-10.7243
▁kadrosunda	-10.7243
yazı	-10.7244
avi	-10.7244
▁sıralama	-10.7246
▁oto	-10.7249
▁yapay	-10.7249
▁Miss	-10.7251
▁olasılığı	-10.7251
▁göze	-10.7258
▁toz	-10.7258
▁toplanan	-10.726
▁Cam	-10.7261
▁unvan	-10.7261
oğulları	-10.7262
▁Jon	-10.7262
▁çabaları	-10.7262
▁üstlenmiştir	-10.7263
)"	-10.7263
▁turnuvası	-10.7264
ED	-10.7264
▁birleşti	-10.7269
taşı	-10.7269
▁aşamasında	-10.727
▁kulak	-10.7271
▁oylama	-10.7271
▁Napolyon	-10.7271
▁filmler	-10.7271
▁Koruma	-10.7272
▁kalesi	-10.7273
▁Gold	-10.7275
▁takma	-10.7276
pra	-10.7276
▁başlangıcı	-10.728
▁kampı	-10.7281
▁düzenlenmiştir	-10.7281
▁uygulanması	-10.7284
▁çekilmiştir	-10.7285
▁seslendirme	-10.729
▁alınmış	-10.7291
▁Kâ	-10.7293
▁Sistem	-10.7293
▁Time	-10.7294
▁Kariyeri	-10.7295
oviç	-10.7295
▁mini	-10.7298
FC	-10.7302
▁kahverengi	-10.7302
▁Lar	-10.7302
In	-10.7304
oni	-10.7304
nom	-10.7308
▁Pol	-10.731
ов	-10.7311
▁Şar	-10.7314
▁Teksas	-10.7315
ydü	-10.7315
▁atmıştır	-10.7316
▁alanlar	-10.732
▁hakem	-10.7321
pat	-10.7322
▁Ven	-10.7324
▁eşcinsel	-10.7325
▁Şehri	-10.7329
▁Premier	-10.733
▁bisiklet	-10.7332
▁kök	-10.7333
▁olmasından	-10.7334
▁çıkarak	-10.7336
▁yağmur	-10.7336
▁Rio	-10.7336
▁Bah	-10.7337
▁getirmek	-10.7338
▁albümünün	-10.7339
▁Hollandalı	-10.7339
▁başlığı	-10.734
▁yedek	-10.7341
▁yaşamın	-10.7345
▁yapımcılığını	-10.7347
▁ekipman	-10.7347
cle	-10.7348
▁Şirketi	-10.7349
▁haklarını	-10.7351
▁Â	-10.7353
dos	-10.7354
fri	-10.7355
▁gemileri	-10.7356
▁türler	-10.7359
hop	-10.7359
▁diğeri	-10.736
▁testi	-10.7363
▁depolama	-10.7365
▁Üyeliği	-10.7365
enko	-10.7366
▁torunu	-10.7369
▁imzalanan	-10.7373
▁Libya	-10.7374
▁Müze	-10.7374
ias	-10.7374
▁Michel	-10.7377
́	-10.7378
▁Of	-10.7381
irler	-10.7383
▁sin	-10.7385
▁şehirleri	-10.7385
▁düşünür	-10.7386
▁Voleybol	-10.7388
▁oksijen	-10.7388
▁yetkilileri	-10.7389
▁Konferansı	-10.7392
▁katliam	-10.7393
▁imha	-10.7395
▁beğeni	-10.7395
▁Elazığ	-10.7398
▁Çayı	-10.7402
lendirilmiştir	-10.7404
▁olursa	-10.7404
▁özelliklerini	-10.7405
▁bilin	-10.7411
▁tanıt	-10.7414
▁birleşmesi	-10.7414
▁eserinde	-10.7414
▁piyano	-10.7418
▁tanımı	-10.7418
▁eğilim	-10.742
▁mimarisi	-10.742
▁dizide	-10.7421
▁Hasta	-10.7422
▁kolayca	-10.7422
▁biyolojik	-10.7423
dığında	-10.7426
▁İzlanda	-10.7428
▁akış	-10.7431
▁Malta	-10.7431
▁UNESCO	-10.7432
▁şöyle	-10.7432
▁Maz	-10.7435
CO	-10.7437
▁Halil	-10.7437
▁sunar	-10.7439
▁eksikliği	-10.744
ET	-10.744
▁malzemeler	-10.7442
▁kalabalık	-10.7442
▁yenildi	-10.7445
▁aşkın	-10.7447
ics	-10.745
▁Bin	-10.7451
▁Oscar	-10.7453
▁personel	-10.7455
▁girerek	-10.7456
▁kampanya	-10.7456
tho	-10.7457
▁Florida	-10.7457
▁Serbest	-10.7462
▁Comp	-10.7466
▁miras	-10.7466
▁koleksiyonu	-10.7469
▁indi	-10.7469
▁Night	-10.7471
ât	-10.7473
▁çarpı	-10.7475
lıların	-10.7476
▁öngörü	-10.748
▁Haber	-10.7483
çiler	-10.749
▁federal	-10.7492
▁görevden	-10.7495
▁Arka	-10.7496
▁ülkeye	-10.7498
▁tekli	-10.7499
▁kalıp	-10.7505
onik	-10.7506
à	-10.7507
▁London	-10.7507
▁yarışmada	-10.7509
▁sanatçılar	-10.7509
▁kurtul	-10.7509
▁sertifika	-10.7515
▁aşaması	-10.7516
▁Şahin	-10.7518
▁gid	-10.7518
▁sürer	-10.7519
▁okyanus	-10.7521
Gürcüce	-10.7522
▁yoluna	-10.7524
ıt	-10.7524
▁Çay	-10.7529
▁koydu	-10.753
abildi	-10.7531
▁seferi	-10.7535
▁bat	-10.7535
▁harfi	-10.7535
▁Endonezya	-10.7536
▁Hil	-10.7537
▁sisteminde	-10.7538
▁Jones	-10.7539
He	-10.7541
yorum	-10.7542
▁konular	-10.7542
▁duyma	-10.7542
▁denk	-10.7543
▁Villa	-10.7544
▁sayımında	-10.7545
▁koruyucu	-10.7546
▁Hareketi	-10.7551
him	-10.7555
▁Alex	-10.7556
▁yetkisi	-10.7558
▁hapishane	-10.7563
yacak	-10.7563
▁zaten	-10.7564
▁duygu	-10.7564
▁gösterme	-10.7565
▁Savaşları	-10.7571
▁grupların	-10.7571
▁fırsat	-10.7573
▁Ziya	-10.7574
▁gösterilen	-10.7579
▁Uygur	-10.7581
▁anlama	-10.7583
▁İmam	-10.7585
▁tuttu	-10.7588
▁cinsi	-10.7588
ator	-10.7589
▁filosu	-10.759
▁Blo	-10.759
▁soyadı	-10.7592
pes	-10.7592
▁ağız	-10.7593
irken	-10.7594
ique	-10.7596
▁çıkışı	-10.7597
▁donanma	-10.7598
▁üretil	-10.76
▁PKK	-10.7608
bru	-10.7609
▁içeri	-10.7609
▁Gaz	-10.7611
▁kitabın	-10.7611
▁Palm	-10.7612
▁çalışmak	-10.7617
emedi	-10.7619
▁nişan	-10.762
▁formasıyla	-10.7621
itler	-10.7621
zım	-10.7621
▁bölgesinden	-10.7621
▁dizisinin	-10.7623
▁enzim	-10.7625
▁bunları	-10.7625
▁oynama	-10.7628
oto	-10.7628
▁und	-10.7629
▁ismiyle	-10.7631
▁YouTube	-10.7636
▁Yap	-10.7639
▁East	-10.7639
▁tanık	-10.764
▁biz	-10.764
▁Koreli	-10.7645
▁cezasına	-10.7646
▁muhalif	-10.7646
cre	-10.7647
wan	-10.7647
rî	-10.7647
▁güneyde	-10.765
▁veriler	-10.7653
▁Game	-10.7654
▁hastane	-10.7655
▁akarsu	-10.766
▁Galler	-10.7661
▁Op	-10.7662
▁İslami	-10.7663
bl	-10.7663
▁tehlikeli	-10.7665
▁sürücü	-10.7668
▁özgürlük	-10.7669
▁işler	-10.7669
trik	-10.767
▁Kit	-10.7671
▁yürürlüğe	-10.7672
tul	-10.7673
▁Tha	-10.7674
suna	-10.7675
haz	-10.7676
lıyordu	-10.7677
lığının	-10.7684
So	-10.7685
▁Batman	-10.7685
▁yazarlar	-10.7685
▁yayımlanmıştır	-10.769
▁Çelebi	-10.7692
▁Ul	-10.7692
▁kayna	-10.7693
yacağını	-10.7697
▁sevgi	-10.7698
▁mevkiinde	-10.7699
▁Helen	-10.7704
▁olmalıdır	-10.7705
▁zaferi	-10.7706
▁Mahallenin	-10.7706
▁meşru	-10.7707
▁Ağır	-10.7707
▁bilgisi	-10.7708
▁nöro	-10.771
▁Gui	-10.7711
▁belediyedir	-10.7711
lastik	-10.7713
▁Had	-10.7716
▁Char	-10.7718
▁van	-10.7718
▁Yahudilerin	-10.7719
▁Aleksandr	-10.7727
çam	-10.7734
▁profesörü	-10.7736
▁Şanlıurfa	-10.7737
▁kuzeyde	-10.7738
▁başkanlığını	-10.7738
▁vatandaşı	-10.7741
▁şiiri	-10.7741
▁satıl	-10.7741
▁aktris	-10.7748
▁Rose	-10.7753
▁Song	-10.7755
▁başlık	-10.7759
▁sahneye	-10.7761
▁Kiev	-10.7764
▁Timur	-10.7764
▁ışın	-10.7769
▁tamamlayan	-10.777
▁Inc	-10.7771
▁Vladimir	-10.7773
▁gül	-10.7775
▁üçlü	-10.7776
▁alıcı	-10.7777
▁olun	-10.7778
AF	-10.7778
▁öğrencileri	-10.7779
▁dışına	-10.7781
▁öğretmeni	-10.7782
▁ağırlığı	-10.7785
▁kilit	-10.7787
▁Group	-10.779
▁bakanı	-10.7792
▁Johnson	-10.7794
▁mod	-10.7798
▁Tren	-10.7799
▁Cer	-10.78
▁kutlama	-10.7808
Cumhurbaşkanlığı	-10.7809
▁kubbe	-10.7809
▁Selanik	-10.7809
▁Kasaba	-10.7809
▁kadının	-10.7809
tizm	-10.7811
▁bulan	-10.7812
▁France	-10.7814
▁çocuğun	-10.7814
>	-10.7819
▁numarası	-10.7828
▁yanlısı	-10.7829
▁yıldızı	-10.7831
Rusça	-10.7834
▁Giresun	-10.7834
▁kurulduğu	-10.7836
bilim	-10.7838
▁belirlenmiştir	-10.7839
▁mükemmel	-10.7839
kent	-10.7841
▁gelerek	-10.7845
tah	-10.7845
Ho	-10.7845
▁güvenilir	-10.7845
▁şehre	-10.7845
▁kurgu	-10.7851
▁sürme	-10.7851
▁Ruslar	-10.7853
▁Wil	-10.7853
▁olayların	-10.7855
lemek	-10.7858
▁organik	-10.786
cisi	-10.786
▁Model	-10.786
▁Yolu	-10.7861
▁değişir	-10.7863
▁sürmüştür	-10.7866
▁con	-10.7866
▁eyaleti	-10.7867
▁çağ	-10.7867
▁semtinde	-10.787
ê	-10.787
▁olmasıdır	-10.7872
ese	-10.7873
▁yumuşak	-10.7878
▁getirilmiştir	-10.7878
▁Christian	-10.7881
▁birbirlerine	-10.7881
ord	-10.7881
metri	-10.7882
liğinde	-10.7884
isten	-10.7884
▁görevinde	-10.7885
▁olgu	-10.7885
▁öğret	-10.7886
ciliği	-10.7888
▁öncelikle	-10.7889
▁bitkiler	-10.7894
▁belirlenen	-10.7895
▁pre	-10.79
▁aydın	-10.79
▁şeyler	-10.7902
▁Ekonomik	-10.7902
▁kadrosuna	-10.7904
▁çelik	-10.7904
▁topçu	-10.7904
ER	-10.7905
▁adlandırıl	-10.7909
TP	-10.7913
▁döneminin	-10.7916
λ	-10.7917
▁hu	-10.7918
▁posta	-10.7918
▁kaynaklı	-10.7919
▁yaratıcı	-10.792
IA	-10.7922
▁sunma	-10.7925
▁kömür	-10.7927
▁huzur	-10.7927
▁etiket	-10.7929
rar	-10.793
▁Mora	-10.7932
▁bitir	-10.7933
▁Emin	-10.7934
»	-10.7937
▁Dun	-10.7938
▁Karaca	-10.7941
▁sabah	-10.796
▁geldiğini	-10.7962
▁Koz	-10.7963
▁sandalye	-10.7963
▁dayanarak	-10.7963
▁inşası	-10.7967
▁Rom	-10.7968
▁görece	-10.7969
▁düzenlediği	-10.7971
▁denizaltı	-10.7972
▁gelişen	-10.7975
▁kanseri	-10.7978
▁üreten	-10.7981
▁kesiminde	-10.7982
dışı	-10.7988
▁yakından	-10.7991
▁teşkil	-10.7992
▁rüzgâr	-10.7995
fin	-10.8
▁çevresindeki	-10.8001
▁değiştiril	-10.8003
▁Tut	-10.8006
▁istila	-10.801
fir	-10.8011
▁damar	-10.8012
▁sır	-10.8013
▁yöntemler	-10.8013
▁kilisesi	-10.8014
▁Özgür	-10.8014
▁nehri	-10.8015
▁liderliğindeki	-10.8016
Su	-10.8017
▁filmlerinde	-10.8018
ough	-10.8018
▁Tele	-10.8019
▁işlemleri	-10.802
▁görünüş	-10.8022
PS	-10.8023
ân	-10.8025
▁harekât	-10.8026
▁Arthur	-10.8027
▁değin	-10.8031
▁from	-10.8031
▁Romalılar	-10.8034
▁Peru	-10.8034
rich	-10.8035
▁pratik	-10.8036
▁Geliş	-10.8037
TS	-10.8038
▁bulut	-10.8039
▁bağımlı	-10.8042
▁Çorum	-10.8042
▁saldırgan	-10.8044
▁Saf	-10.8045
▁Anton	-10.8046
▁Stephen	-10.8047
▁yüzeyi	-10.8049
▁Muhafız	-10.8052
▁Sağ	-10.8052
▁dergisinde	-10.8054
▁çevril	-10.8054
çal	-10.8058
▁coğrafya	-10.8058
▁Onur	-10.8059
▁ikincisi	-10.806
▁Edi	-10.806
enberg	-10.806
▁Fra	-10.8064
▁sıraya	-10.8064
▁Bolu	-10.8065
▁çağır	-10.807
▁buzul	-10.8071
pot	-10.8071
▁Qui	-10.8074
▁düşme	-10.8075
▁Kolombiya	-10.8078
▁BM	-10.8081
▁dayanıklı	-10.8084
▁Abdül	-10.8084
▁tarihten	-10.8084
cumhurbaşkanlığı	-10.8089
▁Erzincan	-10.8089
▁peri	-10.8093
▁çizim	-10.8093
▁seks	-10.8094
▁Walter	-10.8095
▁zehir	-10.8097
▁onlar	-10.8098
▁gerekmektedir	-10.8098
▁arkeolojik	-10.81
sson	-10.8103
▁Şarkının	-10.8104
▁Bad	-10.8105
▁tohum	-10.8111
▁Karabağ	-10.8111
▁sınıflandırıl	-10.8113
▁post	-10.8114
▁nitelik	-10.8116
AD	-10.8116
▁stratejik	-10.812
▁kodu	-10.812
▁Formula	-10.8121
gas	-10.8121
▁arşiv	-10.8122
▁kütlesi	-10.8123
▁merkezleri	-10.8123
▁dönemlerinde	-10.8124
lot	-10.8127
ğü	-10.8127
▁dahi	-10.8127
▁tabanı	-10.8128
▁ışığın	-10.8128
▁Aslan	-10.8128
▁yavru	-10.8131
▁dünyasında	-10.8131
▁kaplı	-10.8133
KP	-10.8135
▁görmüş	-10.8135
▁Ruh	-10.8136
▁kullanmaya	-10.8136
▁kaynaklanan	-10.8137
▁görmüştür	-10.8137
ensis	-10.8139
ebilmektedir	-10.8142
fı	-10.8144
▁İdare	-10.8145
▁örgütü	-10.8145
▁türe	-10.8149
▁uyku	-10.8151
▁çeşidi	-10.8152
▁perde	-10.8153
▁Ob	-10.8153
▁House	-10.8154
▁işlevi	-10.8154
▁gönderilen	-10.8154
▁Bob	-10.8155
▁Cihaz	-10.8158
▁etmesini	-10.8159
▁tanrısı	-10.8159
▁soyu	-10.8162
▁Tru	-10.8162
▁eyaletinin	-10.8166
▁takımıyla	-10.8167
kem	-10.817
▁mermi	-10.8174
eski	-10.8177
▁zamanın	-10.8177
▁eklendi	-10.8177
▁birincil	-10.8179
▁öğrencilerin	-10.818
kış	-10.8181
▁alanına	-10.8182
▁Tümeni	-10.8183
▁tatil	-10.8183
▁hanedanı	-10.8183
▁bilimci	-10.8184
rea	-10.8184
▁Farsça	-10.8187
▁rahip	-10.819
▁bilinç	-10.8194
▁kredi	-10.8195
▁Güneydoğu	-10.8196
▁altyapı	-10.8197
▁endüstri	-10.8197
▁görünüm	-10.8206
▁koyma	-10.8208
▁Yak	-10.8209
▁Liga	-10.8211
▁tanımlar	-10.8211
▁oluşum	-10.8213
▁Seferi	-10.8214
▁Babil	-10.8215
▁İr	-10.8217
▁sonsuz	-10.8217
▁yazında	-10.822
▁Wilhelm	-10.8221
▁Linux	-10.8221
CP	-10.8227
▁İlçesi	-10.823
▁Yasası	-10.8231
▁olağanüstü	-10.8232
▁Land	-10.8232
▁tanımlama	-10.8234
▁çerçevesinde	-10.8235
▁Kamp	-10.8236
▁getirmiştir	-10.8237
▁şampiyonluğunu	-10.8237
▁Mardin	-10.8247
ektör	-10.8247
▁Bina	-10.8249
▁yolculuk	-10.825
lah	-10.8252
▁İskoç	-10.8253
▁dönüşüm	-10.8254
▁Şiir	-10.8254
▁mekanizma	-10.8258
▁Eyalet	-10.826
▁mutlu	-10.826
pper	-10.8261
oma	-10.8261
▁ülkeden	-10.8261
▁birçoğu	-10.8262
▁Kü	-10.8262
▁kuvvetler	-10.8263
▁tahliye	-10.8264
bed	-10.8264
▁düşüncesi	-10.8269
▁School	-10.8269
▁katılmaya	-10.8274
▁sınıflandırma	-10.8276
kay	-10.8279
▁Koç	-10.8281
▁adası	-10.8287
rif	-10.8288
▁evre	-10.8291
▁yazan	-10.8294
▁Eric	-10.8296
▁katılır	-10.8301
▁Köyü	-10.8303
yolu	-10.8306
▁Dergisi	-10.8313
nız	-10.8313
▁desteklemek	-10.8313
▁süs	-10.8315
"),	-10.8316
▁karışımı	-10.8317
izmin	-10.8318
▁adalet	-10.8318
▁Disney	-10.8318
▁iniş	-10.8318
▁Part	-10.832
yecek	-10.832
ugh	-10.832
▁duyuru	-10.8322
▁katılması	-10.8324
▁kaldırılması	-10.8325
ies	-10.8329
▁atıldı	-10.8329
▁Kütüphanesi	-10.8331
▁dost	-10.8332
yacağı	-10.8332
▁verileri	-10.8333
▁alışveriş	-10.8334
▁gerçekten	-10.8339
▁Kafkas	-10.834
▁antrenör	-10.8343
▁Neo	-10.8343
▁kariyerinin	-10.8347
▁Hükûmet	-10.8349
▁buraya	-10.8352
▁kim	-10.8352
▁hükümet	-10.8352
gay	-10.8355
▁öldüğü	-10.8356
▁yetkili	-10.8357
▁oranları	-10.8357
▁öğrendi	-10.8358
▁görüşmeler	-10.8359
sso	-10.8359
▁Yemen	-10.836
▁taht	-10.8361
▁Petr	-10.8362
▁şarkısını	-10.8362
▁cins	-10.8362
▁Orada	-10.8366
▁olmasa	-10.8367
▁limanı	-10.837
▁Evi	-10.8371
▁hekim	-10.8372
ST	-10.8372
▁odası	-10.8373
▁getirilen	-10.8374
US	-10.8383
non	-10.8385
▁Saat	-10.8386
▁Vir	-10.8386
reti	-10.8386
gazi	-10.8387
▁bunlardan	-10.8389
▁optik	-10.8391
▁yolları	-10.8391
▁cümle	-10.8393
▁sermaye	-10.8393
▁oynamaya	-10.8395
▁Brezilyalı	-10.8396
▁olabileceğini	-10.8399
▁zamandan	-10.8401
IS	-10.8402
▁gerçekleşir	-10.8406
▁vücudun	-10.8406
▁alay	-10.8408
‘	-10.841
war	-10.841
▁Bern	-10.8412
▁üstü	-10.8414
▁Sak	-10.8417
▁referans	-10.842
▁duyduğu	-10.8422
iğe	-10.8422
▁Um	-10.8422
▁hukuku	-10.8423
▁göstermek	-10.8424
▁atlet	-10.8424
▁kuantum	-10.8426
▁diller	-10.843
▁kalitesi	-10.8431
▁uçakları	-10.8432
▁kimliği	-10.8432
▁Kişi	-10.8434
▁Len	-10.8434
mond	-10.8436
▁kriz	-10.8442
▁politikaları	-10.8445
▁Metin	-10.8448
▁esin	-10.8449
▁psikoloji	-10.845
▁olayın	-10.8451
RT	-10.8451
▁borç	-10.8452
▁uyuşturucu	-10.8453
▁Geleneksel	-10.8458
▁atarak	-10.8459
▁versiyon	-10.8461
ildiği	-10.8462
▁Lev	-10.8464
▁boşluk	-10.8465
▁eylemleri	-10.8466
▁Lau	-10.8467
cum	-10.8468
uro	-10.8469
?"	-10.8474
ümü	-10.8475
▁kurgusal	-10.8477
▁tanımlanan	-10.8478
▁Ari	-10.8479
yabilir	-10.8479
▁plastik	-10.8481
▁Sonunda	-10.8482
▁karakterler	-10.8483
▁kitapta	-10.8484
▁Tony	-10.8485
ī	-10.8486
▁Grammy	-10.8486
▁Hatay	-10.8489
▁Kanadalı	-10.849
▁İstasyonu	-10.849
▁İşletme	-10.8497
▁Fox	-10.8499
rick	-10.85
▁köyünün	-10.85
▁kontrolünü	-10.8501
▁mı	-10.8503
▁bildirildi	-10.8503
rov	-10.8503
mont	-10.8505
▁çete	-10.8511
suzluk	-10.8513
Ga	-10.8513
mmer	-10.8514
▁Hakları	-10.8515
▁dönemine	-10.8517
▁helikopter	-10.8519
▁uyarlaması	-10.8519
▁anlaşmazlık	-10.8519
atlı	-10.8523
vri	-10.8523
▁Elektro	-10.8524
▁temsilci	-10.8524
▁psikolojik	-10.8525
▁Mike	-10.8525
▁demokratik	-10.8525
▁saldırma	-10.8526
▁siyasetçidir	-10.8528
▁silahlar	-10.8529
▁süredir	-10.8529
▁Uygulama	-10.853
▁görünme	-10.853
▁evliliği	-10.8532
ky	-10.8534
gio	-10.8535
▁Taylor	-10.8535
▁rütbe	-10.8539
▁OS	-10.8539
▁yarattı	-10.854
▁açılması	-10.8541
▁dönüm	-10.8543
▁konularda	-10.8544
▁Parlamento	-10.8545
ε	-10.8546
▁Berg	-10.8551
▁Boston	-10.8551
▁restoran	-10.8552
▁Fran	-10.8552
▁acil	-10.8553
▁bölümler	-10.8556
▁konuşulan	-10.8557
▁üstüne	-10.8559
▁Program	-10.856
mayan	-10.856
larca	-10.8563
▁kıs	-10.8564
ayır	-10.8566
▁rezerv	-10.8568
▁penaltı	-10.8568
stre	-10.8571
▁tanımlamak	-10.8573
▁keskin	-10.8574
▁Karaman	-10.8576
▁canlandırıl	-10.8583
▁verilerine	-10.8583
vor	-10.8583
feld	-10.8583
▁Mihail	-10.8585
▁ibadet	-10.8585
▁yıldan	-10.8585
CA	-10.8587
▁etmişti	-10.8589
▁oranında	-10.859
▁Long	-10.859
▁Piyade	-10.8591
ology	-10.8593
kra	-10.8593
É	-10.8596
▁Otto	-10.8597
▁kaydedilmiştir	-10.8599
▁şov	-10.8601
▁aşık	-10.8605
▁finali	-10.8606
▁Hollywood	-10.8607
▁Ani	-10.8607
▁yetkililer	-10.8607
flor	-10.8608
▁kullanmıştır	-10.8608
▁beceri	-10.8608
▁açıklaması	-10.8608
▁Mira	-10.8609
Farsça	-10.8616
▁ülkeyi	-10.8617
▁Andrew	-10.862
▁tanımlanır	-10.8621
▁yaratma	-10.8621
▁krallık	-10.8622
▁işkence	-10.8624
▁tasarlanmıştır	-10.8624
▁Gala	-10.8625
▁İçin	-10.8627
▁yürüttü	-10.8629
▁Victoria	-10.8629
▁anlatı	-10.863
▁okur	-10.8634
▁takviye	-10.8635
daha	-10.8635
▁Halife	-10.8635
çar	-10.8635
▁Girit	-10.8641
▁başarıyla	-10.8641
▁edebiyatı	-10.8642
ders	-10.8642
▁hücreleri	-10.8644
▁metni	-10.8647
▁mantar	-10.8648
▁hanedan	-10.8651
ism	-10.8652
▁dünyadaki	-10.8656
▁kendisinden	-10.8657
DE	-10.8659
▁izledi	-10.866
şen	-10.8662
μ	-10.8662
SB	-10.8663
ğan	-10.8664
▁kavga	-10.8665
▁belgeler	-10.8668
▁giyme	-10.8669
▁tutan	-10.8671
▁Listesi	-10.8671
▁yarışmasında	-10.8673
▁aldılar	-10.8675
▁Tay	-10.8677
▁ilçenin	-10.8681
cel	-10.8682
laştı	-10.8684
▁başbakanı	-10.8684
▁sayıları	-10.8688
RA	-10.8695
▁Jr	-10.8695
▁Afrikan	-10.8696
Arapça	-10.8697
▁Boğazı	-10.8699
▁Phil	-10.8699
▁ihracat	-10.8701
rasyon	-10.8702
▁öldürdü	-10.8703
▁sessiz	-10.8707
▁meşhur	-10.8707
▁tapınak	-10.8707
▁Fil	-10.8707
▁geçmişi	-10.8711
▁ildir	-10.8713
phe	-10.8716
▁Liverpool	-10.8718
meli	-10.8719
▁kıyafet	-10.8719
▁durma	-10.8722
▁doğuda	-10.8722
▁kemeri	-10.8722
▁zincir	-10.8725
▁çektiği	-10.8727
pos	-10.8729
▁ufak	-10.8732
▁yetenekleri	-10.8733
▁kuram	-10.8735
▁aktivist	-10.8735
▁buradan	-10.8738
▁Mai	-10.8739
▁hükümeti	-10.874
âm	-10.874
▁belediyesi	-10.8742
▁listelerinde	-10.8743
▁yenilgi	-10.8745
▁Öğretmen	-10.8746
▁Trakya	-10.8747
▁hacmi	-10.8748
cular	-10.8749
▁Thor	-10.875
▁merkezidir	-10.8753
▁fonksiyonu	-10.8753
▁üyesiydi	-10.8757
▁ameliyat	-10.8758
▁Balkanlar	-10.8758
▁konuları	-10.8758
▁anlaştı	-10.8759
▁ayakta	-10.876
▁nüfuslu	-10.8761
▁familyasından	-10.8762
▁geçirme	-10.8762
▁Kırmızı	-10.8763
▁Nec	-10.8765
▁Yönetimi	-10.8768
▁evine	-10.8769
▁Madalyası	-10.877
No	-10.8773
▁üretildi	-10.8773
▁deneysel	-10.8775
▁imparatoru	-10.8778
▁destekledi	-10.8778
▁Tiflis	-10.878
memiş	-10.8781
sol	-10.8784
▁yatak	-10.8784
▁kenarında	-10.8786
▁yaban	-10.8788
▁Sayı	-10.8788
▁unut	-10.8789
▁saldırılar	-10.8789
▁popülasyon	-10.8792
▁Gene	-10.8796
▁seslendirdi	-10.8796
▁dikkatini	-10.8798
mid	-10.8798
▁geride	-10.8798
▁laboratuvar	-10.8799
▁öğrenimini	-10.8802
▁Jen	-10.8806
▁Ülkenin	-10.8809
▁cihazlar	-10.881
▁futbolu	-10.881
▁Stone	-10.8811
▁durdurma	-10.8814
▁Recep	-10.8814
▁ortamda	-10.8814
▁neticesinde	-10.8815
acaktı	-10.8815
▁olmasının	-10.8817
▁golü	-10.8818
▁Murad	-10.8818
▁sektörü	-10.8818
Fi	-10.882
müz	-10.8826
▁önerdi	-10.8828
▁milyondan	-10.8828
SM	-10.8833
▁oluşturuldu	-10.8835
▁söylenir	-10.8838
▁kullanılmış	-10.884
▁Bul	-10.884
▁kese	-10.884
▁Yönetmen	-10.8841
▁mühendisliği	-10.8841
▁oyunda	-10.8841
▁tarihinden	-10.8841
▁açmıştır	-10.8844
▁gazetesinde	-10.8844
▁turne	-10.8844
▁Müslümanlar	-10.8845
oba	-10.8846
▁Meydanı	-10.8847
▁annesinin	-10.8847
ürü	-10.8852
▁kurşun	-10.8854
▁istediğini	-10.8855
aran	-10.8855
gâh	-10.8855
▁komplo	-10.8855
▁Matt	-10.8856
▁icat	-10.8856
▁kutup	-10.8857
▁Proje	-10.8859
▁Dis	-10.8861
▁İsveçli	-10.8863
▁yetiştir	-10.8864
▁Flor	-10.8864
▁Lewis	-10.8865
kos	-10.8865
▁içer	-10.8865
▁değişimi	-10.8866
▁bilinmemektedir	-10.8866
part	-10.8866
▁Yağ	-10.8867
gri	-10.8868
▁filo	-10.8869
▁ligin	-10.8871
▁sağlamaktadır	-10.8874
▁maksimum	-10.8876
▁faktörler	-10.888
▁yeraltı	-10.8881
▁İşleri	-10.8884
▁Sky	-10.8886
▁sayısının	-10.8888
▁Marie	-10.8893
▁Up	-10.8895
▁tartışmalı	-10.8898
▁Düş	-10.89
▁Rod	-10.8901
▁Hatta	-10.8902
▁üretme	-10.8909
▁Metro	-10.8909
▁ortamı	-10.8909
▁Kah	-10.8911
▁Hayat	-10.8914
▁duru	-10.8914
▁vize	-10.8917
▁Resmi	-10.8917
end	-10.8917
leştirilmiştir	-10.8917
▁öğren	-10.8918
▁Hen	-10.8922
▁güneybatısında	-10.8924
▁önemi	-10.8924
▁Atlas	-10.8925
▁mes	-10.8926
hut	-10.8926
▁kablo	-10.8927
etti	-10.8927
▁bombardıman	-10.8928
âr	-10.893
▁kura	-10.8932
▁duvarı	-10.8932
▁Hak	-10.8935
▁Kağan	-10.8937
▁strateji	-10.8939
▁oğludur	-10.8944
▁grupta	-10.8944
▁konumu	-10.8944
▁görevleri	-10.8948
hum	-10.8948
х	-10.8951
▁propaganda	-10.8951
▁sürdürmektedir	-10.8951
▁görmek	-10.8951
▁Proto	-10.8951
▁şifre	-10.8952
lüğe	-10.8953
▁söylediği	-10.8955
▁Tuna	-10.8955
▁tecrübe	-10.8956
▁Wilson	-10.8959
▁Free	-10.896
▁seçimlerde	-10.8962
<	-10.8962
▁Fort	-10.8962
▁çekimleri	-10.8963
▁Tü	-10.8964
▁etkisiyle	-10.8965
▁İspanyolca	-10.8968
▁iktidarı	-10.8972
▁avantaj	-10.8973
▁Harvard	-10.8973
▁kısıtlama	-10.8974
▁cisim	-10.8974
▁beslenme	-10.8974
▁Mos	-10.8978
gro	-10.8979
▁Journal	-10.8985
▁Bou	-10.8986
▁Beh	-10.8986
▁tamamlamıştır	-10.8987
▁davası	-10.8989
▁başa	-10.8995
mesiyle	-10.8995
▁görünen	-10.9
ness	-10.9001
▁Dairesi	-10.9004
▁eğri	-10.9005
likten	-10.9006
▁düzeyi	-10.9007
sentez	-10.9008
▁kapak	-10.9008
▁havalimanı	-10.9008
▁Kahire	-10.9009
▁kavuş	-10.9009
grafik	-10.901
▁tanıtıldı	-10.9013
leştirdi	-10.9013
▁Konu	-10.9014
▁hükûmetinin	-10.9018
▁kabine	-10.9018
▁açıklamıştır	-10.902
▁gruptan	-10.9021
bell	-10.9021
hos	-10.9024
▁kazanır	-10.9026
▁Roger	-10.9029
ebilmek	-10.903
▁tarzında	-10.9031
▁düzlem	-10.9036
▁kullanıcılar	-10.9037
▁Ray	-10.9039
▁silindir	-10.9041
▁etmesine	-10.9045
ath	-10.9046
▁sunulan	-10.9047
terapi	-10.9048
▁siyasal	-10.9048
kuyu	-10.9049
▁olurken	-10.9053
▁bant	-10.9053
RI	-10.9054
▁dönüşü	-10.9055
▁keşfedildi	-10.9055
▁kümesi	-10.9059
▁Özbekistan	-10.906
▁Yar	-10.9061
dio	-10.9062
▁kuzeybatısında	-10.9064
▁farklıdır	-10.9066
▁oluşması	-10.9072
▁Virginia	-10.9073
▁matematiksel	-10.9077
▁aygıt	-10.9078
iyye	-10.9081
▁çekil	-10.9081
▁şef	-10.9081
▁akın	-10.9085
▁ordusunu	-10.9086
çık	-10.9087
sing	-10.9088
cio	-10.9089
▁Şehirdeki	-10.9089
▁sultan	-10.909
▁Köprü	-10.909
▁Theodor	-10.9092
dok	-10.9094
▁hayatının	-10.9096
▁nahiye	-10.9104
▁mesele	-10.9106
▁cadde	-10.9107
▁döneme	-10.9108
▁oluşmuştur	-10.9108
▁kutu	-10.9109
rö	-10.9111
▁kiralık	-10.9111
lıktan	-10.9112
▁Muğla	-10.9112
▁bütçe	-10.9112
sten	-10.9113
▁unsurları	-10.9113
lemektedir	-10.9113
▁Mis	-10.9114
HP	-10.9116
▁fikirleri	-10.9117
▁intikam	-10.9118
▁Hitit	-10.9118
▁verici	-10.9119
zak	-10.912
▁millet	-10.9121
▁videosu	-10.9121
atif	-10.9122
▁koalisyon	-10.9124
▁Vu	-10.9125
▁Antonio	-10.9127
▁hastalığın	-10.9128
▁Denizli	-10.9128
gül	-10.9129
▁geçirmek	-10.913
▁vuruş	-10.9131
▁edilmesini	-10.9134
▁Varşova	-10.9136
▁Öğrenci	-10.9136
old	-10.9137
▁duvarları	-10.9137
lanmıştı	-10.9139
iko	-10.9145
▁adlandırıldı	-10.9147
▁bacak	-10.9153
▁Blue	-10.9153
▁Beni	-10.9155
▁sitesinde	-10.9157
▁Seçimleri	-10.9163
▁insanlara	-10.9167
lanmaya	-10.9168
▁bozul	-10.9168
▁trafik	-10.9171
cap	-10.9173
▁savunan	-10.9177
▁oyunudur	-10.918
▁Milano	-10.9181
▁araştırmaları	-10.9182
▁savunması	-10.9183
Kara	-10.9183
türk	-10.9183
▁etkisini	-10.9185
pho	-10.9186
▁barındır	-10.9187
ılmaktadır	-10.9191
▁bulunabilir	-10.9193
▁sendromu	-10.9195
▁resimleri	-10.9196
▁yazıt	-10.9197
büs	-10.9197
uzan	-10.9199
▁çiftçi	-10.92
▁hesabı	-10.92
▁öldürür	-10.9203
▁Asur	-10.9205
▁bağlayan	-10.921
▁haftalık	-10.9211
▁Ross	-10.9212
▁tesisleri	-10.9212
▁Milletvekilliği	-10.9212
▁eleştirmenler	-10.9212
▁Uni	-10.9215
▁gösterilir	-10.9225
▁yazmaya	-10.9225
▁eve	-10.9226
▁büyüklüğü	-10.9226
ianus	-10.9228
▁Henri	-10.923
▁Alfred	-10.923
▁Güven	-10.9231
▁yazılımı	-10.9233
Portekizce	-10.9234
▁dağıtım	-10.9236
bank	-10.9238
▁aksiyon	-10.924
▁koşu	-10.9241
▁ilave	-10.9241
▁tümen	-10.9244
kuş	-10.9244
▁mitolojisinde	-10.9246
AL	-10.9247
▁Kahramanmaraş	-10.9247
▁Kılıç	-10.9247
▁sipariş	-10.9253
▁Bab	-10.9253
▁geliştirmek	-10.9254
▁planlanan	-10.9255
▁sekizinci	-10.9255
▁Dükü	-10.9256
pati	-10.9259
▁tekne	-10.9259
ст	-10.926
▁portre	-10.9262
▁mitoloji	-10.9263
▁konserler	-10.9265
▁gitmek	-10.9266
▁Fel	-10.9267
▁Wor	-10.9267
▁katılmak	-10.927
▁Yavuz	-10.9271
▁kaplama	-10.9271
▁Belgrad	-10.9272
▁State	-10.9274
ische	-10.9275
▁uçağın	-10.9276
▁tarihçiler	-10.9277
▁Dili	-10.9278
▁sözlü	-10.9278
▁türün	-10.9278
▁mor	-10.9283
▁devrimci	-10.9283
▁oradan	-10.9286
▁Fred	-10.9286
▁göm	-10.9287
▁konut	-10.9288
izmi	-10.9288
▁ülkesinde	-10.9288
▁kullanıcıların	-10.9288
▁gelip	-10.9289
▁kapsar	-10.929
▁komisyon	-10.9295
▁kuşlar	-10.9296
▁ayrıntılı	-10.9297
▁tezi	-10.9297
▁Kurul	-10.9298
▁hafıza	-10.9301
▁kahve	-10.9301
▁Steven	-10.9301
▁yarattığı	-10.9301
▁kurmuş	-10.9302
▁Gil	-10.9303
▁FA	-10.9306
cci	-10.9312
▁Amasya	-10.9313
alizm	-10.9313
ín	-10.9314
▁«	-10.9316
▁Şampiyonluğu	-10.9316
leşmesi	-10.9316
▁Ky	-10.9319
▁sarayın	-10.9321
oidea	-10.9321
▁yasası	-10.9324
▁hakkını	-10.9328
▁Fon	-10.9329
▁bilimkurgu	-10.933
boy	-10.9335
▁formül	-10.9336
▁sıfat	-10.9337
mâ	-10.9337
▁çekimi	-10.9348
▁yayılması	-10.9349
▁kanadı	-10.9351
▁açıklamada	-10.9351
▁direkt	-10.9354
▁eskiden	-10.9354
ž	-10.9354
▁mağaza	-10.9355
ive	-10.9357
▁basıncı	-10.9357
▁kanıtlar	-10.9357
▁ani	-10.936
▁artı	-10.9361
▁görünümü	-10.9363
▁turunda	-10.9363
light	-10.9365
▁kapsa	-10.9367
▁şirketleri	-10.9369
▁zırh	-10.9369
▁Kitabı	-10.9374
ár	-10.9374
▁Panzer	-10.9374
▁dersler	-10.9375
▁Lisans	-10.938
▁Sahne	-10.9385
▁gençlik	-10.9385
▁noktaları	-10.9385
▁korsan	-10.9388
▁geçirildi	-10.9389
MC	-10.9389
▁Rıza	-10.939
Türkiye	-10.9393
▁moleküller	-10.9394
▁rahatsız	-10.9394
▁bilinmeyen	-10.9397
▁soyundan	-10.9398
▁Vah	-10.9401
sunun	-10.9406
pet	-10.9406
▁peygamber	-10.9408
▁taç	-10.941
▁katlı	-10.9412
▁özet	-10.9412
vre	-10.9413
ñ	-10.9415
▁mülkiyet	-10.9416
▁tahtın	-10.9418
▁finalist	-10.9418
▁Nitekim	-10.942
▁Konservatuvarı	-10.9421
▁ayırma	-10.9421
▁doğası	-10.9422
▁Gan	-10.9423
▁denen	-10.9424
house	-10.9425
▁götür	-10.9426
geliştirilmiştir	-10.9427
▁ilahi	-10.9427
▁dokun	-10.943
▁aldıktan	-10.9433
▁birliklerinin	-10.9433
▁öğrenim	-10.9436
▁bulunuyor	-10.9436
time	-10.9438
cro	-10.9438
▁yerleşik	-10.9438
çılar	-10.9439
mac	-10.9445
▁duyarlı	-10.9446
▁karşılığı	-10.9446
▁finansal	-10.9447
▁Adolf	-10.945
ülmüş	-10.9451
▁müsabakaları	-10.9453
▁sergiledi	-10.9455
▁güncelleme	-10.9455
▁batıda	-10.9461
▁fırtına	-10.9462
eira	-10.9463
▁golle	-10.9466
▁sömürge	-10.9468
▁duyuruldu	-10.9468
▁kısımları	-10.9469
▁ülkelerinde	-10.9469
▁ordunun	-10.9469
▁kad	-10.9471
▁meclisi	-10.9472
▁rekoru	-10.948
▁mühendislik	-10.948
▁kabuk	-10.948
▁verilmektedir	-10.9482
▁Good	-10.9482
▁araştırmacılar	-10.9482
▁Oy	-10.9486
▁Science	-10.9486
▁modül	-10.9488
▁yardımı	-10.9489
▁şefi	-10.9493
▁Pierre	-10.9493
▁olgun	-10.9494
▁Lor	-10.9496
▁destekleme	-10.9499
▁Yön	-10.95
▁uyu	-10.95
▁Küre	-10.9502
▁şerit	-10.9505
azi	-10.9509
▁amcası	-10.9511
▁Sad	-10.9513
▁Dom	-10.9517
▁Yel	-10.9519
lanmasına	-10.952
▁kurmuştur	-10.952
▁üçgen	-10.9522
▁kumanda	-10.9525
has	-10.9529
▁ısrar	-10.9529
▁egemen	-10.9529
▁Konstantin	-10.953
▁Aş	-10.9531
▁komut	-10.9531
şek	-10.9532
▁maçlar	-10.9533
▁gerekçe	-10.9535
göz	-10.9535
vaz	-10.9535
▁uygula	-10.9536
▁türdür	-10.9539
▁yönlendir	-10.9539
▁Julia	-10.9543
▁senaryosunu	-10.9547
▁çöl	-10.9548
▁yükselmiştir	-10.9548
▁etmekte	-10.9552
▁Mavi	-10.9554
ical	-10.9554
▁Yara	-10.9555
▁Hayvan	-10.9557
▁düşünülen	-10.9559
σ	-10.9559
yeceği	-10.9559
Ke	-10.9563
▁keşfetti	-10.9564
liyordu	-10.9566
▁radyasyon	-10.9571
değiştirilmiştir	-10.9572
▁Floransa	-10.9577
▁geçmişte	-10.9578
▁İst	-10.9579
▁yüzlerce	-10.9579
▁jeo	-10.958
▁yapının	-10.958
▁Bet	-10.9581
▁Letonya	-10.9584
▁Rap	-10.9588
▁değişme	-10.9589
▁varsayım	-10.959
▁Rob	-10.959
glo	-10.9591
▁giymiştir	-10.9592
▁Albay	-10.9593
▁kör	-10.9594
▁Metal	-10.9595
▁Saldırı	-10.9596
▁yazılar	-10.9599
▁Veli	-10.9599
▁romantik	-10.96
▁ال	-10.96
▁defter	-10.9602
▁döneminden	-10.9602
▁endüstriyel	-10.9602
▁oynamış	-10.9603
▁sembolü	-10.9605
mol	-10.9606
▁çeker	-10.9606
▁geliştirici	-10.9607
▁zamanların	-10.9608
▁kalite	-10.9611
▁oyuncunun	-10.9613
▁oyuncuların	-10.9616
▁çoklu	-10.9616
▁kaptan	-10.9617
▁algoritma	-10.962
▁Enerji	-10.962
▁iyileştirme	-10.962
▁Aslında	-10.962
çay	-10.9623
▁oluş	-10.9626
▁Yozgat	-10.9626
mark	-10.9626
sızlık	-10.9627
▁Napoli	-10.9629
bury	-10.9632
▁itiraz	-10.9632
▁By	-10.9634
▁Kes	-10.9636
▁yapımında	-10.9637
▁Samsung	-10.9639
▁düşünme	-10.9641
▁dua	-10.9642
▁grubuna	-10.9644
▁bağlanmıştır	-10.9644
▁History	-10.9645
▁benzeyen	-10.9645
▁seslendirilen	-10.9651
▁Kad	-10.9652
▁Sig	-10.9653
▁Nan	-10.9654
WW	-10.9656
▁Dolayısıyla	-10.9657
▁Society	-10.9657
▁manga	-10.9657
▁DC	-10.9657
▁adres	-10.9659
▁ribaund	-10.9663
not	-10.9665
▁Sat	-10.9665
eau	-10.9666
▁anlatım	-10.9666
▁başlama	-10.9668
▁felaket	-10.9669
▁Antakya	-10.9669
▁derleme	-10.9674
▁bırakır	-10.9679
▁Gir	-10.9679
▁denize	-10.968
▁enstrüman	-10.9682
▁Mid	-10.9683
▁koro	-10.9686
▁atı	-10.9686
▁ucunda	-10.9689
▁diplomat	-10.9691
diğinde	-10.9694
abildiği	-10.9694
▁gösteriyor	-10.9695
IC	-10.9695
▁yaşına	-10.9698
oph	-10.9698
şik	-10.9699
▁yükseklikte	-10.9701
▁High	-10.9705
▁etkinlikler	-10.9706
▁atölye	-10.9706
Fa	-10.9707
▁Us	-10.9707
leştiği	-10.9709
▁hücreler	-10.9711
▁mülteci	-10.9713
▁bileşen	-10.9713
▁otuz	-10.9714
GP	-10.9716
▁Steve	-10.9716
sos	-10.9717
▁memnun	-10.9719
▁sözleşmesi	-10.9725
cul	-10.9725
▁nüfusa	-10.9728
▁sakinleri	-10.9729
▁Oblastı	-10.9731
hid	-10.9732
bili	-10.9734
lanmasını	-10.9734
▁güneybatı	-10.9735
▁izle	-10.9736
▁kariyer	-10.9737
leyecek	-10.975
▁kitaplar	-10.9752
▁Dönemi	-10.9755
▁farkında	-10.9756
▁uzmanı	-10.9757
▁Arch	-10.9758
RS	-10.9761
▁Yani	-10.9762
▁Elektrik	-10.9762
▁Genelkurmay	-10.9762
▁görün	-10.9763
▁gölü	-10.9763
▁Sınıf	-10.9769
▁Met	-10.977
▁çalışmalarında	-10.9771
yy	-10.9771
▁alış	-10.9772
ülü	-10.9773
▁hareketli	-10.9774
▁yeğeni	-10.9775
▁şartları	-10.9776
▁Berk	-10.9776
▁sürülen	-10.9776
▁verdiler	-10.9777
▁yükselt	-10.9778
▁Chan	-10.9778
laşır	-10.9779
molekül	-10.9783
▁kardeşleri	-10.9783
▁ayağı	-10.9787
▁Araç	-10.9787
▁caz	-10.9788
▁kapat	-10.9788
ören	-10.9789
▁konusundaki	-10.979
▁Benzer	-10.979
▁desteğini	-10.979
▁Pin	-10.9791
▁Orijinal	-10.9793
▁görevlerinde	-10.9795
▁akciğer	-10.98
▁asteroit	-10.98
▁kurtarıl	-10.9803
▁Dünyanın	-10.9804
▁fizikçi	-10.9804
▁kırık	-10.9805
▁Cemal	-10.9807
▁Güç	-10.9809
▁teorik	-10.9815
doğ	-10.9818
▁Veri	-10.9819
▁fırla	-10.982
Ben	-10.9821
▁Bahçe	-10.9822
oth	-10.9822
şiş	-10.9822
▁özgürlüğü	-10.9824
eks	-10.9825
nor	-10.9831
Dünya	-10.9831
çin	-10.9831
▁yoksa	-10.9832
▁ölme	-10.9833
▁Gur	-10.9835
▁Işık	-10.9836
▁Ürdün	-10.9837
▁evde	-10.9837
▁santral	-10.9838
sif	-10.9839
hay	-10.984
▁Arena	-10.9841
▁Mara	-10.9841
▁Üniversitesinde	-10.9842
▁salgını	-10.9843
▁ilgisi	-10.9843
▁radikal	-10.9843
▁etmişlerdir	-10.9844
▁Wolf	-10.9847
▁Georg	-10.9847
▁buluş	-10.9848
▁beğen	-10.9848
▁Hart	-10.985
▁Fan	-10.985
▁Ermeniler	-10.9851
▁yemin	-10.9853
▁planlama	-10.9855
▁Open	-10.9855
ışık	-10.9856
ssen	-10.9857
▁kampanyası	-10.9858
▁doğduğu	-10.9859
▁rejim	-10.9859
▁İlçenin	-10.9861
▁Baha	-10.9861
▁entegre	-10.9862
▁bulunmamaktadır	-10.9865
▁temin	-10.9868
▁koku	-10.9868
▁topraklar	-10.9869
▁tetik	-10.9869
▁bugüne	-10.987
▁ermesi	-10.9873
▁tanımlanmıştır	-10.9873
fat	-10.9877
âh	-10.9878
istler	-10.9879
▁ikamet	-10.9881
▁isyanı	-10.9882
▁Street	-10.9883
▁düşündü	-10.9884
▁hazırladı	-10.9886
▁hazırladığı	-10.9888
▁kırıl	-10.989
▁verildiği	-10.989
▁kuramı	-10.9891
▁Francis	-10.9892
▁yalan	-10.9894
▁Glo	-10.9895
▁anısına	-10.9897
▁ağrı	-10.9898
▁halklardan	-10.9899
▁yaygındır	-10.99
▁almakta	-10.9901
boğa	-10.9902
▁Rick	-10.9903
▁kullanılmak	-10.9903
ries	-10.9904
▁faz	-10.9905
dorf	-10.9905
▁Hur	-10.9906
▁Que	-10.9906
▁Fırat	-10.9906
▁ulaşır	-10.9907
▁Nadir	-10.9907
▁getirilmesi	-10.9908
▁Oyunun	-10.991
yama	-10.9911
MÖ	-10.9912
▁uzanır	-10.9914
ward	-10.9914
posta	-10.9914
▁Who	-10.9916
▁ettikten	-10.9919
▁kritik	-10.9919
alım	-10.992
▁sağlan	-10.9921
▁Vil	-10.9921
▁Monte	-10.9922
▁Krist	-10.9923
▁korudu	-10.9925
▁dâhil	-10.9925
fel	-10.9929
▁negatif	-10.9931
▁Matematik	-10.9931
abilme	-10.9932
▁Prenses	-10.9934
▁Sony	-10.9934
▁faktör	-10.9934
▁Bazen	-10.9936
liğinden	-10.9938
▁haberi	-10.9939
more	-10.9939
▁iletken	-10.994
▁bırakarak	-10.9942
dre	-10.9945
▁birleşme	-10.9945
▁uyarınca	-10.9946
▁biten	-10.9949
я	-10.995
söz	-10.9951
▁Hâ	-10.9955
▁mağlubiyet	-10.9957
col	-10.9959
▁Projesi	-10.9959
▁Sami	-10.9961
▁çalı	-10.9962
▁Mahkeme	-10.9962
▁sayısını	-10.9962
sburg	-10.9963
▁tuş	-10.9963
hâ	-10.9964
▁içerme	-10.9967
▁katil	-10.997
To	-10.9974
▁alırken	-10.9976
▁eserin	-10.9976
▁Holding	-10.9976
▁galip	-10.9976
▁adındaki	-10.9977
görü	-10.9979
▁şirketler	-10.9979
▁Kaptan	-10.998
▁aşiret	-10.9982
El	-10.9983
▁Ağrı	-10.9983
▁niteliğinde	-10.9986
▁dönmesi	-10.9987
▁kuzeybatı	-10.9987
▁kişiliği	-10.999
▁bölümünün	-10.9993
hab	-10.9994
▁raporu	-10.9994
▁gerçekçi	-10.9995
▁güneydoğu	-10.9995
▁farklılıklar	-10.9997
muh	-10.9999
▁düzensiz	-11.0002
▁tat	-11.0003
▁askerlerin	-11.0005
▁yüzyıllar	-11.0008
▁Komutanı	-11.0009
▁farklılık	-11.0009
▁Divan	-11.001
▁sunucusu	-11.0011
▁Media	-11.0012
seksüel	-11.0014
▁yayını	-11.0016
▁yarışmaya	-11.0017
▁rütbesi	-11.0021
Avrupa	-11.0022
arch	-11.0024
▁Lenin	-11.0024
▁yetenek	-11.0031
▁Köprüsü	-11.0034
▁yapmayı	-11.0034
▁Avusturyalı	-11.0037
▁Kurucu	-11.0039
▁Turizm	-11.0041
▁astronomi	-11.0041
▁gölge	-11.0045
▁Nüfus	-11.0045
▁Sonrasında	-11.0046
▁burs	-11.0049
▁tanımladı	-11.0049
▁yöneten	-11.0049
▁makamı	-11.005
▁takımdan	-11.005
▁kuyruk	-11.0052
▁Valisi	-11.0055
▁skor	-11.0057
▁keşfi	-11.0059
çeşme	-11.006
▁Sparta	-11.006
▁Salonu	-11.0062
▁virüs	-11.0065
▁Almanyası	-11.0066
▁bölümden	-11.0066
▁Power	-11.0068
▁manzara	-11.0072
▁Tunç	-11.0073
▁tabur	-11.0074
▁davranışları	-11.0075
▁kaçar	-11.0078
▁Kahraman	-11.0078
▁Sara	-11.0081
▁tahrip	-11.0084
▁kalanı	-11.0085
▁merkezinin	-11.0086
▁aracın	-11.0091
▁Seç	-11.0093
!"	-11.0094
▁yerleşimi	-11.0096
▁türbe	-11.0096
▁kaçak	-11.0098
▁Dir	-11.0099
BS	-11.0102
▁belirlenmesi	-11.0103
vâ	-11.0105
pur	-11.0108
▁ülkedeki	-11.0109
öv	-11.0111
▁türünde	-11.0111
▁iklimi	-11.0112
▁Out	-11.0112
▁problem	-11.0114
▁sıkıştır	-11.0117
dus	-11.0119
çer	-11.0125
▁Ukraynalı	-11.0125
▁parçacık	-11.0126
▁birinde	-11.0126
▁başvur	-11.0129
koz	-11.0129
EM	-11.0129
lag	-11.0129
▁Corporation	-11.0129
▁Siyasal	-11.0129
▁güzellik	-11.0132
put	-11.0132
▁sağladığı	-11.0133
ан	-11.0138
▁oynar	-11.0141
klarında	-11.0145
▁Programı	-11.0148
▁Dizinin	-11.0149
▁Doğa	-11.0152
▁evren	-11.0153
Man	-11.0153
▁Doğru	-11.0155
▁bağı	-11.0155
▁adlandır	-11.0157
lev	-11.0157
▁Ec	-11.0158
▁klinik	-11.0162
▁Koyu	-11.0163
ME	-11.0164
▁polimer	-11.0165
vey	-11.0169
▁gömüldü	-11.0171
grad	-11.0174
▁üreme	-11.0174
ς	-11.0174
▁С	-11.0177
▁panel	-11.0177
▁Got	-11.0177
ktik	-11.0178
▁editör	-11.0179
▁Turu	-11.0181
▁başkanlığında	-11.0183
▁Rad	-11.0184
▁çarp	-11.0187
▁rivayet	-11.0188
▁Liber	-11.0188
▁Resim	-11.019
Off	-11.019
▁hareketin	-11.0192
▁Lang	-11.0192
▁faaliyetlerini	-11.0195
▁adıdır	-11.0196
▁yapacak	-11.0196
▁yılan	-11.0197
SV	-11.0198
▁kuzeydoğusunda	-11.0199
▁Cengiz	-11.0201
▁South	-11.0201
fiz	-11.0204
▁Salih	-11.0205
▁Mühendisliği	-11.0206
▁Mücadele	-11.0207
onia	-11.0207
▁döngü	-11.0209
▁adaylığı	-11.0212
▁hipo	-11.0212
▁Massachusetts	-11.0214
▁elendi	-11.022
▁Neu	-11.0221
▁sadık	-11.0222
▁kuran	-11.0222
▁Ros	-11.0224
▁köyüne	-11.0225
BC	-11.023
▁sevdiği	-11.023
FL	-11.0231
▁geliştirildi	-11.0234
TL	-11.0237
▁Aga	-11.0239
▁şeyin	-11.0239
▁tarayıcı	-11.024
▁River	-11.024
▁Queen	-11.0243
▁İli	-11.0246
▁yeterince	-11.0246
▁yıldızlar	-11.0247
rian	-11.0247
▁öğrenir	-11.025
▁sakin	-11.0251
▁gerektirir	-11.0255
fol	-11.0255
▁Wall	-11.0257
▁mantık	-11.0257
▁Pont	-11.0258
▁çalışmış	-11.0259
▁sevgilisi	-11.026
▁ailesine	-11.0261
▁hayvanların	-11.0265
▁ettirdi	-11.0266
▁ünite	-11.0268
grafi	-11.0268
▁sınırında	-11.0268
▁Mali	-11.027
▁Columbia	-11.0272
▁PlayStation	-11.0272
▁rüzgar	-11.0272
mür	-11.0273
▁geçiril	-11.0274
▁rekorunu	-11.0282
▁tedarik	-11.0285
IM	-11.0288
▁şeklindedir	-11.0288
SO	-11.029
iğin	-11.0291
▁Malezya	-11.0292
▁Turnuva	-11.0293
▁oynandı	-11.0294
lidae	-11.0296
▁örnekler	-11.0297
▁durumun	-11.0297
leştirmek	-11.0298
▁ihraç	-11.0299
▁Vatan	-11.0299
▁sürülmüştür	-11.0299
uncu	-11.0299
▁yayınladığı	-11.0301
▁belirlen	-11.0301
▁yayınlama	-11.0304
▁Felsefe	-11.0305
▁yaşadıkları	-11.0306
▁yakalama	-11.0306
▁kapağı	-11.0308
▁Sibirya	-11.0312
ebilmesi	-11.0313
▁Normal	-11.0313
mag	-11.0316
▁Yardımcı	-11.0316
▁Barcelona	-11.0318
▁taşıyıcı	-11.0318
▁Çiçek	-11.0319
yurt	-11.032
▁çıkmaya	-11.032
▁tasarlanan	-11.0321
▁Cat	-11.0321
▁California	-11.0325
▁ilkesi	-11.0327
▁seçkin	-11.0327
▁tamamlama	-11.0329
▁François	-11.0331
▁yenilgiye	-11.0331
▁Las	-11.0331
▁düzeyinde	-11.0336
▁klavye	-11.0338
▁eğitimine	-11.034
▁Mirası	-11.034
▁şiirleri	-11.0341
▁yaşı	-11.0342
▁tanınma	-11.0343
▁sonuçlanan	-11.0344
▁çoğal	-11.0345
▁rütbesine	-11.0346
▁rüya	-11.0347
▁peynir	-11.0351
▁Yabancı	-11.0351
▁dağlık	-11.0351
▁sınav	-11.0353
makla	-11.0355
▁kullanmaktadır	-11.0357
▁boyunda	-11.0358
▁Müdürü	-11.0359
▁turnuvada	-11.036
▁hâline	-11.0361
Wh	-11.0364
▁Mezopotamya	-11.0364
▁etiketiyle	-11.0365
▁ışığı	-11.0366
ılacak	-11.0369
▁Sür	-11.0371
▁Hayatı	-11.0384
▁menzil	-11.0385
▁papa	-11.0389
▁maçını	-11.0389
▁güneydoğusunda	-11.0391
▁ofis	-11.0391
▁Protestan	-11.0391
▁dergisinin	-11.0394
▁mayın	-11.0397
▁benim	-11.0401
▁örtüsü	-11.0401
▁yasama	-11.0406
▁tercüme	-11.0411
▁evrensel	-11.0414
▁yapıları	-11.0414
owski	-11.0416
▁tahmini	-11.0416
▁Kaba	-11.0416
▁Norman	-11.0417
▁hazine	-11.0418
▁Prag	-11.0418
▁şubesi	-11.0419
▁uyma	-11.042
▁ekledi	-11.042
▁yoksun	-11.042
▁ex	-11.0421
Qu	-11.0422
▁sebeple	-11.0422
▁Doğal	-11.0422
ه	-11.0424
▁komün	-11.0429
▁Siyah	-11.0432
▁Gon	-11.0432
▁McC	-11.0434
▁stili	-11.0435
▁ürünlerin	-11.0436
yeceğini	-11.0438
▁dolarlık	-11.0438
▁düğüm	-11.044
▁inter	-11.0443
▁gösteriler	-11.0443
▁matematikçi	-11.0446
▁yazarları	-11.0448
▁diyerek	-11.0449
▁etken	-11.0452
Ja	-11.046
▁sürece	-11.046
▁metinler	-11.046
▁haftasında	-11.0463
▁akraba	-11.0464
▁dokuzuncu	-11.0464
▁çekilme	-11.0465
▁Ünlü	-11.0468
▁kova	-11.0471
Vi	-11.0474
▁Solanum	-11.0477
▁Pay	-11.0477
▁Meslek	-11.0479
▁Jane	-11.048
▁evrenin	-11.0487
▁tablosu	-11.0489
▁tüp	-11.049
▁belirtilmiştir	-11.0491
▁oyuncudur	-11.0492
▁Şirketin	-11.0493
▁Manastırı	-11.0494
▁MTV	-11.0496
▁karma	-11.0497
▁Maliye	-11.0498
▁yüzölçümüne	-11.0499
▁Yurt	-11.05
laşmıştır	-11.0504
▁istek	-11.0506
▁ödüller	-11.0507
▁köylerin	-11.0507
▁liderliği	-11.051
▁sezonunu	-11.0513
▁Kont	-11.0514
iidae	-11.0515
▁heykeli	-11.0516
▁Jim	-11.0516
▁türlerin	-11.0516
▁konsept	-11.0517
▁belki	-11.0519
▁deneyimi	-11.0519
▁durumunu	-11.0522
ılım	-11.0522
▁rota	-11.0523
ар	-11.0524
▁taktik	-11.0524
▁haricinde	-11.0524
lanacak	-11.0525
▁bulduğu	-11.0526
▁topraklarını	-11.0528
▁Sergi	-11.0529
▁görüldüğü	-11.0532
chy	-11.0534
hre	-11.054
▁muhabir	-11.0544
▁yazıldı	-11.0549
▁kuşağı	-11.0551
▁patlak	-11.0554
▁HD	-11.0555
▁vazgeç	-11.056
▁yolunda	-11.0563
▁çiftlik	-11.0564
▁doldur	-11.0566
sizliği	-11.0569
roz	-11.0569
▁Ras	-11.0571
rion	-11.0572
▁Kimya	-11.0574
olojisi	-11.0576
▁Hikâye	-11.0578
MI	-11.0581
▁Clark	-11.0582
▁hâlen	-11.0582
▁Hattı	-11.0583
▁format	-11.0583
▁bulmuştur	-11.0586
▁çıkıp	-11.0586
▁İnan	-11.0588
▁azalma	-11.0589
▁Anayasası	-11.059
▁maçlarını	-11.0591
▁Kızılderili	-11.0591
▁bozukluğu	-11.0591
▁bakır	-11.0596
▁Yama	-11.0597
▁grubudur	-11.0598
▁kuzeydoğu	-11.0599
▁okulda	-11.06
ağaç	-11.06
▁gününde	-11.0602
yıldız	-11.0603
▁Çer	-11.0603
▁olmasıyla	-11.0604
vid	-11.0604
▁Bundesliga	-11.0605
▁dükkân	-11.0605
▁Mekke	-11.0605
▁Geri	-11.0606
▁filmlerde	-11.061
leşti	-11.0611
▁üretmek	-11.0612
▁Asker	-11.0612
▁şarkıcısı	-11.0612
▁etap	-11.0612
ekli	-11.0613
▁olmadı	-11.0615
▁Evren	-11.0619
▁gerçekleşmiştir	-11.0621
pazarı	-11.0622
▁yolculuğu	-11.0622
▁sanatçının	-11.0623
▁uçuşu	-11.0625
▁semptom	-11.0625
▁biyografi	-11.0626
▁Profesör	-11.0626
hm	-11.0626
▁alanının	-11.0627
▁tüy	-11.0628
▁nefret	-11.0628
▁İnşaat	-11.0632
lé	-11.0633
▁tünel	-11.0633
▁korunma	-11.0638
▁Bavyera	-11.0639
▁konsol	-11.0644
▁hassas	-11.0644
vik	-11.0646
▁Hei	-11.0648
▁Arma	-11.0648
Öl	-11.065
XVI	-11.065
▁programlama	-11.0652
▁burun	-11.0653
▁oluşturulmuş	-11.0654
▁atanmıştır	-11.0654
▁grubunu	-11.0655
▁Nişanı	-11.0659
▁etkinlikleri	-11.066
▁beklenen	-11.0661
▁Swift	-11.0666
▁altyapısında	-11.0666
öğ	-11.0668
▁geçirmiştir	-11.0672
▁karıştır	-11.0672
▁öfke	-11.0673
▁duygusal	-11.0673
▁kaybetme	-11.0673
▁hipotez	-11.0673
▁Town	-11.0673
▁Ful	-11.0674
▁istikrar	-11.0675
▁mezarı	-11.0677
▁yaralı	-11.0679
▁fikrini	-11.0682
▁kapasite	-11.0682
▁prodüksiyon	-11.0687
▁Türkçeye	-11.0692
▁hazırlama	-11.0693
▁defnedildi	-11.0693
cusu	-11.0694
▁Dere	-11.0695
▁kademe	-11.0695
▁bozulma	-11.0696
▁günümüzdeki	-11.0696
▁hastalıklar	-11.0697
▁kurumları	-11.0697
▁System	-11.07
▁kamyon	-11.07
▁ordusuna	-11.07
▁boğaz	-11.0702
▁bahsedil	-11.0702
▁Sina	-11.0703
▁cenaze	-11.0705
alp	-11.0706
▁fotoğrafçı	-11.0707
▁NASA	-11.0707
▁ihanet	-11.0707
▁Master	-11.0708
▁cüce	-11.0708
▁tap	-11.0712
▁tüketici	-11.0714
▁Mahmut	-11.0714
▁Harris	-11.0717
▁tutum	-11.0722
▁Diya	-11.0723
▁Rumeli	-11.0725
▁makinesi	-11.0725
▁Masa	-11.0727
▁Center	-11.073
▁vatan	-11.0732
Yeni	-11.0732
▁zinciri	-11.0733
▁oluşturulmuştur	-11.0736
formasyon	-11.0737
git	-11.0737
▁anime	-11.0738
▁izleyen	-11.0738
▁Key	-11.0739
▁ekleme	-11.0739
▁Kaynak	-11.0742
▁eğim	-11.0742
▁oyuncuları	-11.0742
▁geçim	-11.0743
▁kilisenin	-11.0745
▁hasılat	-11.0748
▁Şimdi	-11.0748
ulması	-11.0753
▁anket	-11.0755
▁şeklindeki	-11.0757
laştırdı	-11.0757
▁diren	-11.0759
▁yapımlar	-11.076
▁alçak	-11.076
▁Jersey	-11.0762
▁fakülte	-11.0763
pas	-11.0765
uğra	-11.0766
▁mili	-11.0766
özellikle	-11.0767
▁Organ	-11.0769
şam	-11.0771
▁desteğiyle	-11.0772
▁aldığını	-11.0773
AA	-11.0774
ت	-11.0775
▁ağabeyi	-11.0775
▁yaşamıştır	-11.0776
▁düşüş	-11.0779
▁kısmının	-11.0779
▁Bilimleri	-11.0779
▁yürütül	-11.078
▁zeka	-11.0781
▁ölür	-11.0782
▁tecavüz	-11.0782
▁ölümcül	-11.0782
▁toprağı	-11.0783
rup	-11.0784
▁yapıya	-11.0793
▁kurak	-11.0793
▁destekler	-11.0794
▁kılıç	-11.0796
▁Deli	-11.08
▁başlayıp	-11.08
▁kurallar	-11.0801
▁Dio	-11.0802
▁sanal	-11.0803
▁yüklü	-11.0804
▁Devrim	-11.0806
pop	-11.0807
▁taban	-11.0807
IT	-11.0808
▁protokol	-11.0813
▁koç	-11.0814
▁Düzen	-11.0814
▁alıyordu	-11.0816
giz	-11.0816
▁cep	-11.0818
▁hamile	-11.0819
▁koltuk	-11.0824
tav	-11.0824
▁saltanatı	-11.0827
▁Gun	-11.0829
para	-11.0829
▁şehristanı	-11.0831
▁Filmde	-11.0832
▁kafası	-11.0836
▁yapısal	-11.0837
▁Championship	-11.0838
▁Ry	-11.0841
▁uzaklaştı	-11.0841
▁okuyucu	-11.0845
▁mahkum	-11.0845
rül	-11.0845
▁Shin	-11.0845
dıktan	-11.0846
▁ortalaması	-11.0846
illo	-11.0846
▁İnsanlar	-11.0847
▁Yapılan	-11.0847
▁Chu	-11.0848
▁Juan	-11.0849
▁liderlik	-11.0849
▁anlayış	-11.085
phy	-11.085
▁Şövalye	-11.0851
▁lakabı	-11.0852
▁Miller	-11.0853
▁alanındaki	-11.0854
▁etkileyen	-11.0855
▁Dördüncü	-11.0858
▁Brian	-11.0859
▁Azeri	-11.0859
▁gayet	-11.086
▁tekerlek	-11.0865
▁anlamıyla	-11.0866
▁topraklarının	-11.0867
çilik	-11.0868
gia	-11.0869
ışını	-11.087
ID	-11.0871
▁inşaatı	-11.0873
▁üssü	-11.0873
ø	-11.0874
▁Petro	-11.0874
▁şans	-11.0875
▁adanın	-11.0876
▁geçit	-11.088
▁payı	-11.0882
▁Jacob	-11.0886
▁Slovenya	-11.0889
▁Victor	-11.0889
▁karıştırıl	-11.0892
▁düşmanı	-11.0893
▁Türkçesi	-11.0893
▁garanti	-11.0893
én	-11.0894
ration	-11.0895
▁doz	-11.0897
abad	-11.0897
▁ortağı	-11.0897
▁Vilayeti	-11.0898
▁takımını	-11.0899
▁genişletil	-11.09
▁yıkım	-11.09
▁çıkarmak	-11.0903
▁kurtarmak	-11.0906
▁Pet	-11.0909
▁Radio	-11.091
▁verecek	-11.0914
▁mektubu	-11.0914
▁cesaret	-11.0914
▁rehber	-11.0914
▁patent	-11.0917
▁iade	-11.0917
▁temsilcileri	-11.0918
▁cihazları	-11.0919
▁eki	-11.092
▁pahalı	-11.0921
▁sahası	-11.0921
▁solunum	-11.0921
▁Karar	-11.0928
▁sonucuna	-11.0929
▁imzalandı	-11.0933
kaş	-11.0934
▁başından	-11.0934
▁Frankfurt	-11.0935
▁birbirleriyle	-11.0935
▁Hell	-11.0937
▁Stu	-11.094
▁Ödül	-11.0944
▁iOS	-11.0946
▁müsabaka	-11.0947
▁uygulamaya	-11.0947
rel	-11.0948
▁büyüyen	-11.0948
▁misafir	-11.0949
▁sadrazam	-11.0949
laştırılması	-11.0949
▁Mektebi	-11.095
▁taraftan	-11.095
▁Emek	-11.0952
▁yaşamaya	-11.0952
toloji	-11.0954
ttiği	-11.0955
▁malzemeleri	-11.0957
▁geçmek	-11.0958
demir	-11.0958
vent	-11.096
▁Celal	-11.096
▁kararname	-11.0961
▁izni	-11.0961
SU	-11.0961
▁Kartal	-11.0963
▁devamlı	-11.0963
dov	-11.0963
▁ölçek	-11.0964
▁artar	-11.0966
▁geometri	-11.0967
▁ilgisini	-11.0968
▁Pekin	-11.0969
▁Arslan	-11.097
Alman	-11.0971
▁dinamik	-11.0975
▁sayılar	-11.0976
▁yayılma	-11.0977
▁kuzeni	-11.0977
▁levha	-11.0977
▁Bayan	-11.0979
▁uy	-11.0979
▁savaştan	-11.098
tius	-11.0983
▁plana	-11.0984
▁alacağı	-11.0985
▁kural	-11.0987
▁Haydar	-11.0988
▁Yang	-11.0993
▁öğe	-11.0993
▁Kre	-11.0994
▁yorumlar	-11.0995
RC	-11.0997
▁Abdülhamid	-11.0998
graf	-11.0999
▁indirme	-11.1001
▁çubuklu	-11.1003
▁VII	-11.1003
▁İncil	-11.1006
▁Alice	-11.1006
▁devletlerin	-11.1006
▁hiper	-11.1009
rica	-11.1009
▁nesneler	-11.101
▁koordinat	-11.1012
▁verdikleri	-11.1014
▁haftada	-11.1015
▁Def	-11.1018
▁familya	-11.1019
▁oluşturulması	-11.102
▁delege	-11.102
zik	-11.1021
çek	-11.1022
▁Por	-11.1026
▁yönlü	-11.1026
▁yuvarlak	-11.1026
▁şikayet	-11.1026
▁fethi	-11.1028
▁Gazze	-11.1029
▁Mağara	-11.1033
▁teklisi	-11.1034
zur	-11.1035
▁rejimi	-11.1037
▁Müttefik	-11.1039
ecekti	-11.104
▁Ajansı	-11.1041
▁yardımcılığı	-11.1044
▁Mala	-11.1044
▁Sudan	-11.1045
▁kaçın	-11.1045
▁kurumlar	-11.1047
▁giysi	-11.1047
▁başlatıl	-11.1048
▁eşdeğer	-11.1048
▁filtre	-11.1048
▁sancağı	-11.1048
▁Sınır	-11.1048
▁Bağımsız	-11.1049
iştir	-11.1052
▁listede	-11.1053
▁ödüllendirildi	-11.1055
tmek	-11.1056
▁domuz	-11.1056
▁yaklaşımı	-11.1062
▁keman	-11.1068
▁gerçekleşme	-11.1072
▁İlişkiler	-11.1072
▁mesafede	-11.1073
▁yayıldı	-11.1076
▁İletişim	-11.1083
▁federasyon	-11.1083
▁pompa	-11.1083
ía	-11.1086
▁plaka	-11.1087
▁Dead	-11.1094
▁Böyle	-11.1094
▁şehrine	-11.1094
▁paylaşım	-11.1094
▁Kolordu	-11.1095
gah	-11.1096
İs	-11.1096
▁Mun	-11.1097
▁Heinrich	-11.1097
▁demektir	-11.1097
muştu	-11.1098
▁profil	-11.1101
▁Yi	-11.1102
▁Johann	-11.1105
lendirilmiş	-11.1106
spe	-11.1107
▁Gaga	-11.1108
▁Dö	-11.111
на	-11.1114
▁bölümün	-11.1115
▁monarşi	-11.1118
▁tarihe	-11.1119
▁Bizanslılar	-11.112
ğunu	-11.1121
▁denizci	-11.1121
▁çevirisi	-11.1122
▁atar	-11.1122
▁Noel	-11.1123
▁Mol	-11.1125
▁Zafer	-11.1126
▁fırsatı	-11.113
▁satıldı	-11.1132
▁Bull	-11.1133
▁tutmak	-11.1134
gerçekleştirdiği	-11.1135
▁derecesini	-11.1136
▁Uşak	-11.1136
▁Spr	-11.1137
stone	-11.1138
▁yaptıktan	-11.1139
▁belirtilen	-11.1144
▁Milletvekili	-11.1147
▁İranlı	-11.1148
▁eğilimi	-11.1151
layabilir	-11.1153
▁bizzat	-11.1154
▁Hamburg	-11.1156
▁imkânı	-11.1157
▁sayılır	-11.1157
Er	-11.1157
SI	-11.116
▁geçirir	-11.116
▁yaşıyordu	-11.1161
gua	-11.1162
▁yemeği	-11.1165
▁ilaçlar	-11.1166
layacak	-11.1169
▁kullanıma	-11.1169
▁Hugo	-11.117
IN	-11.1171
çılık	-11.1171
▁Sekreteri	-11.1172
▁Usta	-11.1172
▁Emre	-11.1175
▁metro	-11.1177
kins	-11.1179
▁Abbas	-11.118
▁Meryem	-11.1183
▁görüntüleri	-11.1184
▁sayfası	-11.1188
kışla	-11.119
▁Madonna	-11.119
▁sapta	-11.1192
▁Tayland	-11.1192
▁Cena	-11.1193
polis	-11.1193
▁danışmanı	-11.1194
▁Pap	-11.1194
▁tesisi	-11.1195
▁tümü	-11.1196
zza	-11.12
hon	-11.1203
▁temeli	-11.1203
▁sakat	-11.1204
imli	-11.1205
▁Orkestrası	-11.1206
▁paketi	-11.1206
▁serisinde	-11.1208
▁kayda	-11.1212
▁çalışmalarının	-11.1217
▁Emil	-11.1221
▁kahramanı	-11.1222
▁vs	-11.1222
▁Moldova	-11.1226
▁Turan	-11.1227
“	-11.1229
▁uğrat	-11.1231
▁olmaz	-11.1232
▁harcama	-11.1233
▁Bernard	-11.1235
▁türündeki	-11.1235
▁modu	-11.1236
▁atılan	-11.1238
▁organları	-11.1239
▁yolunu	-11.124
▁Ardahan	-11.124
▁ayının	-11.1242
▁nehrin	-11.1245
▁yüzölçümü	-11.1245
ming	-11.1246
▁müdür	-11.1246
iktir	-11.1246
▁köylü	-11.1247
▁görevlendirildi	-11.1247
leyebilir	-11.1249
▁faaliyetler	-11.125
▁hadis	-11.1254
▁açığa	-11.1256
▁amaçlar	-11.1257
▁Studios	-11.1258
▁edilmesine	-11.1261
▁satışı	-11.1263
▁edilecek	-11.1263
▁ölümünün	-11.1263
▁kıyılarında	-11.1266
▁olurlar	-11.1271
▁uzaklığı	-11.1272
▁Mec	-11.1272
▁Edebiyatı	-11.1273
▁dağılması	-11.1274
▁övgü	-11.1276
▁doları	-11.1276
▁Aksu	-11.1279
▁tersine	-11.1283
▁şirketinin	-11.1283
ère	-11.1287
ony	-11.1289
▁Bit	-11.1289
▁etkilenen	-11.129
▁kıyısı	-11.129
▁şarj	-11.1291
▁gayri	-11.1291
▁Stan	-11.1295
▁Yüzyıl	-11.1299
▁Rich	-11.1299
▁dikey	-11.13
▁muhtemel	-11.1303
▁Çan	-11.1304
Büyük	-11.1305
▁bölgeden	-11.1306
▁renkte	-11.1306
▁Senato	-11.1307
▁ucuz	-11.131
▁elektrikli	-11.1311
▁Tasarım	-11.1313
▁Selçuk	-11.1313
cağı	-11.1314
üğü	-11.1316
▁belirleme	-11.1316
▁cemaat	-11.1317
▁kullanımını	-11.1317
syonu	-11.132
▁Liv	-11.132
▁kesiş	-11.1321
▁biçimleri	-11.1323
▁kala	-11.1323
▁Eğ	-11.1324
▁Harekâtı	-11.1324
▁umut	-11.1325
▁tarafta	-11.1325
▁statü	-11.1326
▁zamanki	-11.1326
▁merdiven	-11.1327
▁Twitter	-11.1327
ebileceğini	-11.1331
▁ediliyor	-11.1331
▁Pho	-11.1332
▁Sezar	-11.1332
▁planları	-11.1333
gno	-11.1334
▁bitiren	-11.1334
▁Xbox	-11.1334
▁Farklı	-11.1334
▁şarkısının	-11.1335
ates	-11.1336
▁kapasiteli	-11.1338
▁hastanede	-11.1339
▁yatay	-11.134
bach	-11.1342
▁berabere	-11.1344
▁dis	-11.1344
▁Aster	-11.1346
▁demo	-11.1347
▁kadrosu	-11.1348
▁bireylerin	-11.1348
▁felsefi	-11.1349
▁Bryan	-11.1349
▁yüzyıllarda	-11.1351
▁aldıkları	-11.1352
▁almayı	-11.1354
▁Bakanlar	-11.1355
▁Dream	-11.1356
▁makalesi	-11.1356
▁Kura	-11.1357
▁belirlendi	-11.1357
▁Yarış	-11.1357
▁sahibidir	-11.136
▁Etki	-11.136
▁Twi	-11.1363
▁üyelerinden	-11.1364
▁gemiler	-11.1366
▁durumuna	-11.1367
▁şarkıların	-11.1368
▁militan	-11.1371
▁komite	-11.1371
▁eksen	-11.1372
▁yayınlanmış	-11.1372
▁sekreteri	-11.1374
▁gereksinim	-11.1377
▁Ef	-11.1377
▁hükme	-11.1378
pid	-11.1378
▁dizisidir	-11.1379
kre	-11.138
▁sekreter	-11.1382
▁tarla	-11.1384
▁Toplum	-11.1384
Yunanca	-11.1385
kav	-11.1386
▁söyleyerek	-11.1386
▁güvence	-11.1387
▁Üyesi	-11.1388
▁finanse	-11.1389
zyon	-11.1391
tarak	-11.1391
▁sıkça	-11.1392
▁önemini	-11.1392
▁üvey	-11.1393
▁Uç	-11.1395
▁kayıtlı	-11.1395
biyo	-11.1396
tron	-11.1397
▁bunlara	-11.1397
▁Silah	-11.1398
▁satır	-11.1398
▁göğüs	-11.14
▁atık	-11.1401
▁Lü	-11.1403
▁yakalandı	-11.1406
▁yarıştı	-11.1408
▁vizyona	-11.1409
▁Başkent	-11.141
▁Camp	-11.141
▁barındıran	-11.1412
▁başlamıştı	-11.1414
▁yamaç	-11.1415
cur	-11.1418
stic	-11.1419
▁kaz	-11.1419
▁ulaştığı	-11.1423
▁eklem	-11.1426
▁desen	-11.1427
▁Sahil	-11.1427
pres	-11.1431
▁Sümer	-11.1432
▁Reis	-11.1433
▁Gol	-11.1434
▁Yay	-11.1435
lenmeye	-11.1435
▁Bilgiler	-11.1435
▁hücrelerin	-11.1436
▁amaçlayan	-11.1436
▁bırakmıştır	-11.1436
▁referandum	-11.1437
▁İbranice	-11.1437
▁dram	-11.1438
▁Newton	-11.1439
▁ölçekli	-11.1444
lerarası	-11.1444
▁Charlie	-11.1444
▁modeller	-11.1447
lebilir	-11.1449
▁Team	-11.1451
▁filme	-11.1453
▁teması	-11.1453
zil	-11.1456
▁Venezuela	-11.1459
▁kırdı	-11.146
▁Türklerin	-11.1462
Her	-11.1463
OM	-11.1463
bağ	-11.1465
▁medrese	-11.1466
▁Brad	-11.1467
▁Sır	-11.1469
▁deneyler	-11.1471
▁ateşi	-11.1473
▁Nijerya	-11.1474
▁üretti	-11.1475
less	-11.1475
zzo	-11.1477
▁Light	-11.148
▁Arkeoloji	-11.1481
▁dönmüştür	-11.1482
▁kusur	-11.1483
▁başarmıştır	-11.1483
king	-11.1483
▁maliyeti	-11.1484
▁Arm	-11.1484
▁neo	-11.1485
▁ulaşmak	-11.1485
▁Allen	-11.1486
ional	-11.1487
▁Ayşe	-11.1492
viz	-11.1494
▁çevresel	-11.1496
▁Filip	-11.1496
▁personeli	-11.1499
hanesi	-11.15
▁yönetimine	-11.1501
▁İdari	-11.1503
▁paylaştı	-11.1505
▁seviyede	-11.1506
▁Ann	-11.1507
▁yapmakta	-11.1508
▁Ava	-11.1509
▁Çalışmaları	-11.1509
▁bahseder	-11.151
▁İoannis	-11.151
got	-11.1512
tâ	-11.1514
▁Yardımcılığı	-11.1517
▁grubunda	-11.1517
film	-11.1517
▁yoksul	-11.1518
▁Samuel	-11.1518
▁Little	-11.1518
▁paylaştığı	-11.1521
▁tarafsız	-11.1521
▁temelini	-11.1524
▁Avcı	-11.1524
▁edildiğini	-11.1525
▁aykırı	-11.1525
▁elbise	-11.1525
▁Patr	-11.1528
▁uzatma	-11.1528
rıl	-11.153
▁döngüsü	-11.1531
▁Soğuk	-11.1533
▁çıkarılmıştır	-11.1533
astro	-11.1536
▁konumunda	-11.1539
▁Dy	-11.1539
yüksel	-11.1539
▁sevk	-11.154
mura	-11.1541
▁bağlama	-11.1543
lock	-11.1543
▁sonlandır	-11.1547
▁Cuma	-11.1551
▁İvan	-11.1552
▁Pur	-11.1554
▁komutanlığı	-11.1555
▁bıçak	-11.1555
▁Horasan	-11.1555
▁askerlik	-11.1556
yıl	-11.156
▁Island	-11.156
▁çizil	-11.1561
▁kâğıt	-11.1562
▁Nil	-11.1562
▁maaş	-11.1564
▁öncülük	-11.1566
▁Belir	-11.1569
▁Ortak	-11.1569
deniz	-11.1569
▁Ever	-11.1569
▁vokalist	-11.1571
▁cerrahi	-11.1572
sper	-11.1574
▁sendika	-11.1578
▁Siyasi	-11.1578
kası	-11.1578
▁kolej	-11.1579
▁bileşenleri	-11.158
▁yerleşmiş	-11.1581
▁eserlerini	-11.1582
▁iktidara	-11.1583
▁Davis	-11.1584
▁Yaşam	-11.1584
stor	-11.1585
▁Atlantik	-11.1585
▁Rou	-11.1586
rıcı	-11.1586
plo	-11.1587
▁Carol	-11.1588
▁karakterin	-11.159
▁engelli	-11.1592
stru	-11.1593
▁tamamladıktan	-11.1594
▁dağılımının	-11.1596
▁Rumen	-11.1598
Kırgız	-11.16
▁tapınağı	-11.16
▁sağlayacak	-11.1601
▁tanıtım	-11.1602
▁Günümüz	-11.1602
TC	-11.1605
▁lehine	-11.1607
▁infaz	-11.1607
reg	-11.1608
▁eylemi	-11.1612
rıldı	-11.1612
▁kuşak	-11.1613
▁memuru	-11.1617
mey	-11.1618
TE	-11.162
▁gösterilme	-11.1624
▁Great	-11.1624
▁desteklenen	-11.1625
▁balina	-11.1627
▁öte	-11.1627
▁sürdüren	-11.1629
▁bilinme	-11.1629
▁gerçeği	-11.163
▁numaradan	-11.163
▁nadiren	-11.163
▁üretici	-11.1633
▁Şampiyonu	-11.1635
▁bekleme	-11.1635
▁Okyanus	-11.1636
▁Network	-11.1637
▁Teori	-11.1637
lasyon	-11.1638
▁doğmuş	-11.1639
▁binalar	-11.1639
▁oyununda	-11.1639
enburg	-11.164
hak	-11.164
▁gecesi	-11.1641
▁Boğaz	-11.1641
▁Romalı	-11.1641
▁bahçesi	-11.1642
▁Tir	-11.1644
▁halefi	-11.1644
▁Turgut	-11.1645
▁Uğur	-11.1645
▁hormon	-11.1645
▁Gümüş	-11.1645
dağı	-11.1648
▁ilerledi	-11.1649
▁Nev	-11.1649
▁Kil	-11.165
▁birleşik	-11.1653
▁Eşi	-11.1653
▁ayna	-11.1653
leniyor	-11.1655
▁yükselir	-11.1656
▁yoğunluk	-11.166
▁fenomen	-11.166
▁Dönemin	-11.166
▁Çince	-11.166
▁karşılaştığı	-11.1661
▁maddelerin	-11.1661
▁devredil	-11.1663
▁ilgilenme	-11.1665
▁İlhan	-11.1665
▁belirten	-11.1666
▁Teşkilatı	-11.167
lanıyor	-11.1671
▁pornografi	-11.1673
miyor	-11.1674
▁görevlerini	-11.1678
▁Aşağıdaki	-11.1679
rent	-11.1682
▁yapılabilir	-11.1682
▁VIII	-11.1686
▁şok	-11.1687
▁dernek	-11.1688
▁kabilesi	-11.1691
▁Odası	-11.1693
▁yasaları	-11.1694
▁Sinop	-11.1695
▁fare	-11.1699
▁kompleksi	-11.1701
hali	-11.1702
▁tamir	-11.1702
▁Örnek	-11.1705
▁oluşturul	-11.1712
▁puanı	-11.1713
▁mermer	-11.1713
semi	-11.1718
▁maddenin	-11.172
▁çoğunluk	-11.172
▁belirlenir	-11.1721
▁çevrili	-11.1721
▁güneye	-11.1724
▁kapatıldı	-11.1726
▁gündeme	-11.1729
chan	-11.173
▁Bakan	-11.1731
ğından	-11.1732
▁Rab	-11.1733
CD	-11.1738
▁bölün	-11.174
▁gizlice	-11.174
▁geçişi	-11.174
uldu	-11.1741
▁takdirde	-11.1741
▁girişimleri	-11.1742
fal	-11.1746
▁izler	-11.1746
EA	-11.1749
▁Cumhuriyetçi	-11.175
▁ahlak	-11.175
▁Jeff	-11.175
▁kabuğu	-11.175
▁asil	-11.1752
▁Gine	-11.1752
▁Carlos	-11.1753
▁şimdiki	-11.1754
▁altyapısı	-11.1756
▁Dokuz	-11.1759
▁direnç	-11.176
▁düşmüştür	-11.176
▁iyice	-11.1762
▁yetenekli	-11.1763
▁savaştı	-11.1763
▁Rub	-11.1765
▁yüksektir	-11.1765
▁itiraf	-11.1765
▁Çekoslovakya	-11.1766
▁topluluğun	-11.1768
▁oluşu	-11.1769
▁Uçak	-11.1769
▁vezir	-11.177
▁yapılabil	-11.177
▁bileşik	-11.1771
efendi	-11.178
▁yönetimindeki	-11.178
▁Bülent	-11.1781
▁Kartaca	-11.1781
şimdi	-11.1782
▁Maya	-11.1785
▁ateşkes	-11.1786
▁yüksekliğinde	-11.1786
▁esnek	-11.1788
▁özdeş	-11.1788
gol	-11.179
▁Andre	-11.179
▁elinden	-11.1794
▁muhafız	-11.1796
▁Yüce	-11.1796
▁serinin	-11.1796
▁derinlik	-11.1797
▁Mezar	-11.1803
▁restorasyon	-11.1803
▁açıklanmıştır	-11.1804
▁Müdür	-11.1805
rep	-11.1805
yönel	-11.1805
▁yapacağı	-11.1811
▁Kullanıcı	-11.1811
▁olabilecek	-11.1811
▁Nikola	-11.1812
TO	-11.1814
▁iskelet	-11.1814
▁Madde	-11.1816
back	-11.1819
▁hikaye	-11.1819
▁kaybetmiştir	-11.1822
▁binanın	-11.1825
▁gözden	-11.1826
worth	-11.1826
▁ilgilidir	-11.1827
▁Cent	-11.1827
▁üçte	-11.1834
▁Marvel	-11.1837
▁ilhak	-11.1838
▁öyle	-11.1839
fur	-11.184
▁geliş	-11.1844
▁İtalyanca	-11.1846
▁kurdular	-11.1846
▁anlaşılmaktadır	-11.1847
aktif	-11.1847
▁Mega	-11.1847
▁restore	-11.1849
▁balığı	-11.185
▁İskenderiye	-11.1853
▁Tip	-11.1853
▁önlemler	-11.1857
▁renkler	-11.1858
▁nitelendirdi	-11.1858
▁oturum	-11.1858
▁efekt	-11.1859
▁içerdiği	-11.1862
▁yakaladı	-11.1863
▁Auto	-11.1864
▁kulesi	-11.1865
▁gelin	-11.1866
▁Tayvan	-11.1866
▁azından	-11.187
▁düzeltme	-11.187
▁kuruluşları	-11.187
▁çıkarılması	-11.1871
▁Jüpiter	-11.1872
▁ilkeleri	-11.1876
aux	-11.1879
▁seçimler	-11.1881
latma	-11.1882
atlar	-11.1886
▁Baas	-11.1891
▁seslendirdiği	-11.1891
▁Akça	-11.1893
elektrik	-11.1895
▁düet	-11.1895
▁robot	-11.1896
▁alıntı	-11.1899
▁pilotu	-11.19
pis	-11.19
▁Porto	-11.1904
▁mutfağı	-11.1907
Özgün	-11.1909
▁Nintendo	-11.1911
▁sebze	-11.1911
▁Filipinler	-11.1911
▁Kıta	-11.1912
▁Vas	-11.1912
▁uzakta	-11.1912
▁edilmişti	-11.1913
▁verilebilir	-11.1914
▁satılan	-11.1914
▁şişe	-11.1915
dım	-11.1915
▁bulunmakta	-11.1916
▁kızları	-11.1919
ving	-11.1922
▁Hakan	-11.1923
▁himaye	-11.1926
alis	-11.1926
▁Korku	-11.1933
▁Universe	-11.1934
▁olmaktan	-11.1934
▁Tuz	-11.1934
▁Band	-11.194
▁Rönesans	-11.1942
▁А	-11.1943
ois	-11.1943
▁projeleri	-11.1948
▁Balık	-11.1949
▁oyu	-11.1949
▁Budapeşte	-11.1949
▁Milan	-11.1952
mum	-11.1955
vekil	-11.1959
▁hâl	-11.196
▁motorlu	-11.1963
▁bölgesini	-11.1966
üşü	-11.1966
▁Danışma	-11.1966
▁gelenekleri	-11.1969
▁ödülüne	-11.1971
batı	-11.1971
▁Anthony	-11.1973
▁yatağı	-11.1974
▁Dergi	-11.1975
▁Nick	-11.1976
Go	-11.1976
▁Best	-11.1977
▁Prensi	-11.198
▁takiben	-11.1981
DF	-11.1982
▁Ivan	-11.1984
▁nitelendiril	-11.1984
▁canlandırma	-11.1984
▁Ron	-11.1985
▁dağlar	-11.1985
▁Poly	-11.1986
▁dağıtımı	-11.1987
▁Zonguldak	-11.1988
▁hareketinin	-11.1993
▁Yor	-11.1993
▁tele	-11.1993
▁subayı	-11.1993
dikten	-11.1994
▁Endüstri	-11.1996
▁José	-11.1996
▁başlangıcında	-11.1997
▁sunmaktadır	-11.1998
▁gelecekteki	-11.2001
▁mühendisi	-11.2003
▁Amsterdam	-11.2004
▁doçent	-11.2004
▁kumaş	-11.2005
▁evden	-11.2006
Par	-11.2006
▁keşfedil	-11.2007
Macaristan	-11.2009
▁benzet	-11.201
▁Bek	-11.2015
▁takımıdır	-11.2015
town	-11.2017
▁tarihini	-11.2019
▁tabakası	-11.202
rılır	-11.202
▁arz	-11.202
▁öldürüldüğü	-11.2021
ress	-11.2024
▁Cri	-11.2024
▁nüfuz	-11.2027
▁Artık	-11.2029
▁Space	-11.2029
▁biti	-11.203
▁sağlanması	-11.2033
zzi	-11.2034
▁bölümünden	-11.2037
▁kayıplar	-11.2037
▁kemerini	-11.2039
▁rapçi	-11.2043
▁Safevi	-11.2044
amadığı	-11.2045
▁Zor	-11.2046
▁heyeti	-11.2051
▁ötesinde	-11.2052
▁konak	-11.2053
▁çağrıldı	-11.2054
▁taşıdı	-11.2054
▁zararlı	-11.2057
▁çıplak	-11.2058
▁Köln	-11.2059
▁Aba	-11.2059
▁yaratık	-11.206
▁kaydedildi	-11.2061
▁Düz	-11.2061
▁karın	-11.2065
▁buğday	-11.2066
▁tasarlandı	-11.2068
▁bağlar	-11.2069
▁sayısız	-11.207
▁kitabını	-11.2072
▁önderliğinde	-11.2073
▁üretir	-11.2073
▁kaybedil	-11.2074
▁lige	-11.2077
▁olacaktı	-11.2077
▁Yok	-11.2079
▁engelleme	-11.2081
▁Kenan	-11.2082
anth	-11.2083
ão	-11.2088
▁noktasında	-11.2095
▁Rak	-11.2096
lararası	-11.21
▁pusu	-11.2101
▁imkân	-11.2103
▁yönelim	-11.2107
▁Franz	-11.2111
▁dilde	-11.2111
▁çember	-11.2113
▁arma	-11.2116
▁başarısını	-11.2116
▁vektör	-11.2119
▁sığır	-11.2119
▁Rag	-11.212
▁Dark	-11.2121
ô	-11.2121
▁Kıs	-11.2123
▁çocukluk	-11.2125
amayacak	-11.2127
▁rakım	-11.2127
▁Çal	-11.2128
▁başlatıldı	-11.213
▁Sher	-11.213
▁Türkçede	-11.2132
▁yaptığını	-11.2133
▁tanıttı	-11.2135
▁Tahran	-11.2136
▁Milliyetçi	-11.2136
▁gergin	-11.2137
▁Spa	-11.2138
kız	-11.2139
▁geliyordu	-11.214
doğan	-11.214
▁kült	-11.2143
▁yaratıl	-11.2145
▁kayıtlarda	-11.2147
▁gidip	-11.2148
▁Bitki	-11.2149
▁demiştir	-11.2149
▁Hristiyanlık	-11.2153
gür	-11.2153
▁kasabasında	-11.2155
▁Avustralyalı	-11.2159
▁ölmüş	-11.216
▁Kök	-11.216
çev	-11.216
▁sayısal	-11.216
▁denetim	-11.216
▁istihdam	-11.2161
▁ihtimali	-11.2161
▁Jin	-11.2161
▁mekân	-11.2161
toz	-11.2164
▁soyut	-11.2165
▁konumda	-11.2166
▁galaksi	-11.2168
▁pasaport	-11.2173
▁kalkan	-11.2173
▁başkanlığına	-11.2176
▁mutfak	-11.2176
▁Mau	-11.2177
▁Stefan	-11.2178
ref	-11.2179
▁Bayrak	-11.2181
▁kurarak	-11.2181
▁şeridi	-11.2184
▁birleşerek	-11.2184
▁Terim	-11.2184
▁usulü	-11.2185
OC	-11.2186
▁müzesi	-11.2186
▁birbirlerini	-11.2186
▁Çelik	-11.2192
▁boğu	-11.2195
▁yeryüzü	-11.2196
▁etrafı	-11.2197
ulduğu	-11.2197
ор	-11.2199
▁bağlıydı	-11.2199
▁Belge	-11.2199
okrat	-11.2199
▁vahşi	-11.22
▁gösterimi	-11.2201
▁kuruluşlar	-11.2201
▁büyümesi	-11.2203
▁istatistik	-11.2203
thy	-11.2204
▁kurumsal	-11.2207
slav	-11.2212
lamıştı	-11.2213
[	-11.2214
▁kaldırma	-11.2215
▁duyar	-11.2215
▁tarikat	-11.2216
▁Şii	-11.2217
▁Mul	-11.2218
▁Baltık	-11.2218
▁Askerî	-11.2219
▁Tibet	-11.222
stat	-11.2222
▁artışı	-11.2223
▁tahsis	-11.2224
▁emre	-11.2224
▁Peri	-11.2224
▁yaklaş	-11.2225
▁Gençler	-11.2227
▁genişleme	-11.2229
▁merak	-11.223
TÜ	-11.2231
▁manken	-11.2233
▁büyüklüğünde	-11.2233
▁emretti	-11.2234
▁Well	-11.2235
▁kızıl	-11.2237
▁muhafaza	-11.2238
▁öyküsü	-11.224
▁nerede	-11.2242
▁atlama	-11.2242
▁giril	-11.2243
▁kardeşler	-11.2246
▁yaşandı	-11.2249
pit	-11.2249
▁edebilme	-11.225
etilen	-11.2253
▁Mario	-11.2254
landırıcı	-11.2255
▁prodüktör	-11.2255
mesinden	-11.2255
▁Politika	-11.2256
▁fırın	-11.2256
▁sivri	-11.2257
▁sürdüğü	-11.2257
▁üyeliğine	-11.2259
over	-11.226
▁cesedi	-11.2264
issa	-11.2264
▁seçilir	-11.2265
▁almıştı	-11.2267
▁klor	-11.227
▁sigorta	-11.2272
▁Çankırı	-11.2272
▁çalgı	-11.2272
▁Augustus	-11.2272
lantı	-11.2273
▁ilginç	-11.2274
▁Slovakya	-11.2274
▁içme	-11.2274
▁kaçan	-11.2276
▁Biyo	-11.2277
rılmış	-11.228
▁ikincil	-11.2284
▁sıralarda	-11.2285
▁bıraktığı	-11.2287
▁üretilmiştir	-11.2287
vul	-11.2293
▁pazarlama	-11.2293
burnu	-11.2294
▁sayım	-11.2296
▁düzenlen	-11.2297
▁azaltmak	-11.2299
▁Katar	-11.23
▁olasılık	-11.23
▁Tang	-11.2301
▁Kevin	-11.2302
▁Drama	-11.2304
▁bürokrat	-11.2304
▁yelken	-11.2304
▁tenis	-11.2308
▁sunan	-11.2309
▁belirledi	-11.231
▁çekirdeği	-11.2314
▁Cul	-11.2315
▁gönderdiği	-11.2319
LC	-11.2319
▁çekmiştir	-11.2319
▁benimsen	-11.2322
▁Guy	-11.2323
▁çıkışlı	-11.2326
▁kentsel	-11.2327
▁Atletizm	-11.2328
▁sorumluluk	-11.2329
bül	-11.233
amin	-11.2331
▁Şef	-11.2333
▁Arif	-11.2334
tidae	-11.2334
▁Pav	-11.2335
▁öldürmek	-11.2336
▁repesaj	-11.2336
▁kuzeyindeki	-11.2337
▁taklit	-11.2338
▁beslen	-11.2338
▁yarışan	-11.2339
▁Hindu	-11.2339
▁eğit	-11.234
▁programlar	-11.2341
▁Heart	-11.2341
▁almasına	-11.2342
fizik	-11.2344
▁Prote	-11.2347
▁yayılan	-11.2348
▁Devrimci	-11.2348
▁görüşleri	-11.2351
NC	-11.2352
ktiv	-11.2353
oka	-11.2356
▁Lüksemburg	-11.236
▁gözlemci	-11.2362
▁şartlar	-11.2367
NS	-11.2367
▁yapıların	-11.2369
▁Bitlis	-11.2369
▁Britanyalı	-11.237
önü	-11.237
▁fakir	-11.2371
nükle	-11.2372
▁irade	-11.2377
▁genişliğinde	-11.2379
▁içecek	-11.238
▁Afrikalı	-11.2381
düz	-11.2383
▁SmackDown	-11.2384
▁Charlotte	-11.2384
▁giyim	-11.2384
▁nihai	-11.2384
▁genişliği	-11.2385
mıyor	-11.2385
▁kaldırılmıştır	-11.2386
▁bulunduğunu	-11.2387
▁Kürtçe	-11.239
▁yapısını	-11.2394
▁kolları	-11.2396
▁Alayı	-11.2397
▁akademi	-11.2397
▁üstünlüğü	-11.2397
▁yukarıda	-11.2398
▁geliyor	-11.2398
▁görüyor	-11.2399
▁Nuri	-11.24
▁karşılaşır	-11.2401
▁zorluk	-11.2402
▁Muş	-11.2402
▁düzenlenmiş	-11.2402
▁karakterize	-11.2403
▁haç	-11.2404
▁Dost	-11.2404
beyaz	-11.2407
▁karşılaştırma	-11.2408
▁Çam	-11.2408
HA	-11.2408
▁onarım	-11.241
▁Call	-11.241
Son	-11.241
fran	-11.241
▁ailesiyle	-11.2411
wick	-11.2413
tılmış	-11.2414
▁Intel	-11.2415
▁sahada	-11.2416
▁tamamını	-11.2417
▁Bow	-11.2419
▁Yüksel	-11.2419
hav	-11.242
▁FK	-11.2421
▁hayatında	-11.2422
▁Bilgisayar	-11.2425
▁engellemek	-11.2427
▁Jacques	-11.2429
▁avlu	-11.2431
▁sorumluluğu	-11.2431
▁konulu	-11.2434
▁imalat	-11.2436
▁radar	-11.2437
▁nesli	-11.244
char	-11.2442
▁karakterleri	-11.2442
tino	-11.2443
▁röportajda	-11.2444
▁eliptik	-11.2449
▁Law	-11.2449
▁çukur	-11.2449
▁şarkıyla	-11.2451
▁maske	-11.2452
TT	-11.2452
▁Association	-11.2457
▁Pictures	-11.2457
▁Basın	-11.2459
▁yöneticileri	-11.246
▁Geniş	-11.246
▁gelişi	-11.246
▁çapraz	-11.2466
▁News	-11.2467
▁gitmesi	-11.2469
▁sığ	-11.2473
▁düğme	-11.2474
▁tahttan	-11.2474
▁zihinsel	-11.2476
leştirilen	-11.2477
▁İdaresi	-11.2477
▁başlatma	-11.2477
▁kaybetmiş	-11.2479
▁işareti	-11.2479
▁kullanması	-11.2479
▁Etiyopya	-11.2482
▁Standart	-11.2482
▁renkleri	-11.2482
▁düştüğü	-11.2483
▁değerler	-11.2486
▁komutasında	-11.2488
▁görüntüsü	-11.2489
▁İrlandalı	-11.249
▁eşliğinde	-11.2492
▁His	-11.2496
▁tanınmıştır	-11.2498
—	-11.25
▁gelecekte	-11.2501
▁metropol	-11.2504
▁Georgia	-11.2504
▁koruması	-11.2504
▁değişiklikleri	-11.2505
Dön	-11.2507
▁Çağdaş	-11.2508
▁Leo	-11.2508
▁yayınlanma	-11.2509
▁Medi	-11.2511
▁asistan	-11.2512
landığını	-11.2512
▁seti	-11.2512
▁güçlerini	-11.2512
▁oynat	-11.2513
▁refah	-11.2515
▁moleküler	-11.2515
▁Home	-11.2515
▁Est	-11.2521
▁İskandinav	-11.2523
▁bayram	-11.2523
▁Araplar	-11.2523
▁kültürünün	-11.2523
▁ölmesi	-11.2524
Don	-11.2527
▁America	-11.2527
▁sesli	-11.253
▁Marc	-11.253
▁bulunmak	-11.2531
▁sigara	-11.2531
▁Kolordusu	-11.2533
âb	-11.2534
Gör	-11.2535
▁yansıma	-11.2536
▁zorundadır	-11.2537
▁Facebook	-11.2539
▁nano	-11.2539
▁sosyoloji	-11.2539
▁düzenlenmesi	-11.254
▁bölünme	-11.2541
▁koyun	-11.2549
haf	-11.2551
▁Senatosu	-11.2551
▁Haçlılar	-11.2554
▁motif	-11.2556
▁Tas	-11.2558
▁döşe	-11.2559
▁Yorkshire	-11.2559
ffer	-11.2563
▁hissetti	-11.2563
▁istisna	-11.2564
▁Sasani	-11.2564
▁mekanizması	-11.2564
▁psiko	-11.2565
▁hitap	-11.2566
▁seviyesinde	-11.2567
▁geçirilmesi	-11.2568
▁salgı	-11.2568
▁Engin	-11.257
▁çekilmiş	-11.257
dön	-11.2574
▁alındığında	-11.2577
▁kaybettiği	-11.2578
ск	-11.2579
▁belediyesine	-11.2579
able	-11.2584
▁üstfamilyasına	-11.2588
▁gözaltına	-11.2588
▁milletvekilleri	-11.2588
▁İpek	-11.2588
▁denetimi	-11.259
doğum	-11.259
▁açılışı	-11.259
▁Gazetesi	-11.259
▁onuruna	-11.2591
▁arzu	-11.2591
▁Alanı	-11.2592
▁yararlı	-11.2592
▁başlatılan	-11.2592
▁şirketidir	-11.2594
▁düşürül	-11.2596
lö	-11.2597
▁şube	-11.2597
▁alfabe	-11.2598
▁taşınması	-11.2599
▁Schu	-11.2599
zor	-11.26
▁süsleme	-11.26
▁hayvancılık	-11.2601
▁bulunul	-11.2603
▁doldurul	-11.2605
▁kriter	-11.2606
▁kaynaklara	-11.2609
▁bozukluk	-11.2612
▁Toronto	-11.2613
▁işlemler	-11.2617
▁Ermenice	-11.2617
▁Your	-11.2618
▁Reich	-11.2621
▁Afyonkarahisar	-11.2621
▁Kadıköy	-11.2621
▁Çeçen	-11.2621
▁sektöründe	-11.2624
▁telefonu	-11.2625
leştirir	-11.2626
▁Yaşar	-11.2629
▁Brand	-11.263
▁tahıl	-11.263
▁Kid	-11.263
▁Old	-11.2635
▁değiştirilmiş	-11.2635
▁ortaokul	-11.2639
üldü	-11.2641
▁Marx	-11.2645
▁dansçı	-11.2648
▁servet	-11.2649
▁topluluklar	-11.2649
▁yörüngesi	-11.2654
▁Şerif	-11.2657
▁Christopher	-11.2657
▁özelliğini	-11.266
ь	-11.2661
▁üretilmiş	-11.2662
▁Kulesi	-11.2662
Kar	-11.2662
▁Uruguay	-11.2663
nell	-11.2664
▁ilişkilidir	-11.2667
▁gruplardan	-11.2667
▁katılarak	-11.2668
▁Parça	-11.2669
▁hac	-11.2672
▁eklenmiştir	-11.2673
▁festivali	-11.2674
▁takvim	-11.2679
▁üretilir	-11.2679
ovski	-11.2679
▁Michigan	-11.268
▁çağın	-11.2681
▁oluşmuş	-11.2681
▁Test	-11.2683
▁kalem	-11.2683
osaur	-11.2684
SR	-11.2686
▁seviyeleri	-11.2687
▁tüketil	-11.2687
▁garnizon	-11.2688
▁rastgele	-11.2688
▁sürdürmüştür	-11.2688
▁ürettiği	-11.2688
▁Water	-11.2693
▁basamak	-11.2694
▁Meta	-11.2695
▁tutarlı	-11.2695
▁Galaxy	-11.2696
▁Karşıyaka	-11.2696
▁cisimler	-11.2697
▁Maden	-11.2699
▁önerme	-11.2701
▁eylemler	-11.2702
▁kişilere	-11.2703
MB	-11.2703
▁Serie	-11.2703
▁Sap	-11.2704
▁Saha	-11.2706
itesi	-11.2708
BB	-11.271
▁içerisindeki	-11.2711
▁iPhone	-11.2713
▁Üsküdar	-11.2713
ان	-11.2714
▁Göç	-11.2716
▁Adnan	-11.2716
fiye	-11.2717
▁tarihî	-11.2721
▁kelimesinden	-11.2724
ridae	-11.2724
▁tutulma	-11.2725
▁Rah	-11.2725
▁yükü	-11.2727
κ	-11.2729
▁Douglas	-11.273
▁Oğlu	-11.273
▁ilişkilerini	-11.2731
▁taşıdığı	-11.2734
▁Tara	-11.2735
krom	-11.2736
▁ulaşmış	-11.2736
▁azaldı	-11.2737
▁davul	-11.274
▁kompleks	-11.2743
PI	-11.2743
▁Cris	-11.2744
▁Lou	-11.2744
▁Einstein	-11.2746
▁teleskop	-11.2749
▁Gau	-11.2751
▁yapıyor	-11.2751
▁çıkmaktadır	-11.2753
▁Yas	-11.2754
▁sub	-11.2754
▁böbrek	-11.2755
▁gökyüzü	-11.2755
köprü	-11.2759
▁yazması	-11.2759
▁gemilerin	-11.276
▁Liberal	-11.2762
▁Games	-11.2762
çok	-11.2763
▁üzeri	-11.2765
▁klasman	-11.2771
hibi	-11.2772
▁Morris	-11.2772
▁Moğolistan	-11.2773
▁başarılar	-11.2773
▁oyuncusudur	-11.2775
▁CEO	-11.278
▁Mr	-11.2781
▁Portekizli	-11.2786
▁dönüşür	-11.2786
▁adanmış	-11.2788
ides	-11.2788
▁görüntüler	-11.279
▁siteleri	-11.2792
▁günlerde	-11.2794
▁Hep	-11.2794
▁dünyayı	-11.2796
▁Festival	-11.2798
▁kaldılar	-11.2802
▁Tümen	-11.2802
▁sayısında	-11.2804
▁Marcus	-11.2805
stad	-11.2806
▁aks	-11.2811
▁sağlıklı	-11.2813
▁toplulukları	-11.2813
▁toplandı	-11.2817
▁memleketi	-11.282
UN	-11.2821
▁mezhep	-11.2822
▁sancak	-11.2824
▁dinî	-11.2824
skaya	-11.2825
▁savunur	-11.2829
▁Bayezid	-11.283
▁çikolata	-11.283
▁kanalları	-11.2832
▁Sivil	-11.2834
cell	-11.2836
▁alındığı	-11.2837
▁Shar	-11.2839
▁sağlanır	-11.2841
ер	-11.2841
▁sürgüne	-11.2846
▁Sık	-11.2847
▁Chelsea	-11.2847
▁entelektüel	-11.2847
▁Hamilton	-11.2847
▁Heykel	-11.2847
▁Chap	-11.285
▁familyası	-11.285
▁Onlar	-11.285
▁süresince	-11.2851
▁gönderir	-11.2855
▁gecikme	-11.2856
▁Komiser	-11.2856
▁katılımı	-11.2856
▁bakıldığında	-11.2856
▁uğrama	-11.2857
ра	-11.2857
▁kökü	-11.2858
▁görüntüleme	-11.2859
▁izo	-11.286
GM	-11.2862
odo	-11.2863
▁Efes	-11.2863
▁Said	-11.2865
▁tamamlayarak	-11.2866
▁ilkokul	-11.2869
▁Bayram	-11.287
▁izole	-11.287
▁sürümleri	-11.287
▁sunduğu	-11.2873
▁Justin	-11.2873
▁belediyenin	-11.2873
▁sürmektedir	-11.2874
▁Bang	-11.2874
▁hükümdarlığı	-11.2879
▁Özgürlük	-11.2884
▁Mimarlık	-11.2886
▁tescil	-11.2886
▁buradaki	-11.2887
▁Giorgi	-11.289
▁Taşı	-11.289
▁solist	-11.2892
▁grev	-11.2897
▁tutuklu	-11.2898
▁tedbir	-11.2898
▁çizgisi	-11.2899
▁Bush	-11.2901
▁Prime	-11.2901
▁sanatsal	-11.2906
▁bileşeni	-11.2906
▁uzaktan	-11.2907
▁İkili	-11.2907
moto	-11.2908
▁Pınar	-11.2909
▁hamam	-11.2909
▁harfleri	-11.2909
▁İstatistik	-11.2915
emeyen	-11.2918
ofil	-11.2921
▁yayınlamıştır	-11.2923
▁haberler	-11.2924
▁konularında	-11.2924
▁çevirdi	-11.2925
▁sayılan	-11.2926
▁geçirmiş	-11.2927
▁gücünün	-11.2927
▁App	-11.2927
Ah	-11.293
▁Boğaziçi	-11.2932
▁batarya	-11.2932
▁istiyor	-11.2934
öğrenim	-11.2934
▁gereklidir	-11.2935
▁etrafındaki	-11.2937
▁Moğollar	-11.2938
▁dönerek	-11.2938
▁işlevsel	-11.2939
▁Gabriel	-11.2941
▁Gümüşhane	-11.2942
▁gerçekleştiği	-11.2942
düğünü	-11.2943
AV	-11.2944
▁saatlik	-11.2944
▁taraftarları	-11.2947
▁Nova	-11.2953
AG	-11.2953
▁listesidir	-11.2955
▁Şan	-11.2956
▁ruhu	-11.2958
▁branş	-11.2958
▁Bölgede	-11.2962
▁düşündüğü	-11.2962
▁vatandaşlığı	-11.2963
▁omurga	-11.2967
▁oluşturmuştur	-11.2968
▁ettirme	-11.2971
▁bireyin	-11.2974
▁beklenti	-11.2975
▁Tayyip	-11.2976
▁okula	-11.2976
▁takımlarında	-11.2981
▁olimpiyat	-11.2984
▁sosyo	-11.2985
rell	-11.2986
▁bilen	-11.2986
▁kırk	-11.2986
▁Yapım	-11.2987
EN	-11.2987
▁seçilmesi	-11.2989
IF	-11.2989
▁erkeklerin	-11.2991
▁Fal	-11.2991
▁içki	-11.2993
▁turist	-11.2995
leyip	-11.2998
sley	-11.2998
▁Fire	-11.3
▁hâkim	-11.3
▁Cenevre	-11.3001
▁destekli	-11.3003
▁DJ	-11.3005
▁niyet	-11.3006
ktörü	-11.3007
▁kesimi	-11.3009
▁IŞİD	-11.3009
▁tutku	-11.301
▁Babasının	-11.301
▁hanede	-11.301
▁Demiryolu	-11.301
▁Amazon	-11.3012
▁kalkınma	-11.3012
▁Adını	-11.3015
▁erg	-11.3017
▁hâlinde	-11.3018
Pro	-11.3018
ance	-11.302
▁Zeki	-11.3023
▁kazanmak	-11.3023
▁biliniyordu	-11.3024
NT	-11.3025
▁Stockholm	-11.3027
▁senatör	-11.3027
▁ispat	-11.3028
▁rakipleri	-11.3031
▁karakterlerin	-11.3031
▁dağılım	-11.3032
▁arttırma	-11.3032
TR	-11.3034
▁Cru	-11.3034
▁yazmış	-11.3035
▁dikdörtgen	-11.3035
▁reddetme	-11.3038
▁örgütün	-11.304
▁Ferdinand	-11.3044
▁kireç	-11.3044
▁Hikmet	-11.3044
OR	-11.3045
▁Shu	-11.3047
▁bölümüne	-11.3051
▁kaçınma	-11.3051
Almanca	-11.3052
tics	-11.3052
▁kurucularından	-11.3052
▁tehdidi	-11.3053
▁çıkarmıştır	-11.3053
▁çalar	-11.3054
▁göstererek	-11.3056
▁yürütülen	-11.3056
▁zirveye	-11.3056
▁Deresi	-11.3056
▁ülkesinin	-11.3057
hed	-11.306
▁etkileme	-11.3062
▁patlayıcı	-11.3064
▁Budizm	-11.3065
▁davranışı	-11.3065
üç	-11.3066
stal	-11.3066
▁yaralanma	-11.3067
▁Şehzade	-11.307
▁lazer	-11.3073
▁evlat	-11.3075
▁kesinlikle	-11.3078
▁freguesia	-11.3079
▁zevk	-11.3079
▁Yahya	-11.3079
▁genişletme	-11.3081
▁çalışmasını	-11.3086
▁aroma	-11.3086
tation	-11.3088
▁emriyle	-11.3089
▁Rü	-11.3089
▁tarımsal	-11.3092
▁gazı	-11.3094
▁karikatür	-11.3096
▁Mikro	-11.3097
▁simetri	-11.3098
▁Doctor	-11.3099
▁Kongo	-11.31
▁bağlanır	-11.3102
adlandırılmıştır	-11.3103
▁sorumludur	-11.3104
▁kavuştu	-11.3104
▁Pel	-11.3105
▁atfedil	-11.3105
▁boyutları	-11.3105
amayacağını	-11.3106
rub	-11.3111
▁etmedi	-11.3112
▁düşmüş	-11.3113
▁mezhebi	-11.3113
▁Arsenal	-11.3113
▁elemanları	-11.3114
▁düğün	-11.3115
▁termo	-11.3117
▁yıkıldı	-11.3117
▁ebeveyn	-11.3118
ulus	-11.312
▁hamur	-11.3121
ен	-11.3122
▁tanınmaktadır	-11.3123
▁büyüktür	-11.3124
▁yaparlar	-11.3125
▁doğrusal	-11.3127
▁benzersiz	-11.3127
▁Abdul	-11.3131
head	-11.3131
▁Under	-11.3131
dinamik	-11.3133
▁imparatorluğun	-11.3134
▁kazandırdı	-11.3135
▁Xi	-11.3138
▁tablet	-11.314
▁zira	-11.3143
▁güçlerinin	-11.3145
▁köylüler	-11.3148
▁tazminat	-11.3148
▁kanı	-11.3152
▁Diego	-11.3153
▁gerekse	-11.3155
▁çıkarır	-11.3156
▁Otel	-11.3157
▁volkanik	-11.316
▁anki	-11.3161
▁niteliği	-11.3162
▁sponsor	-11.3162
▁cihazın	-11.3163
▁Sound	-11.3163
▁Mobile	-11.3166
CE	-11.3166
▁Rho	-11.3167
▁katkıları	-11.3167
▁keçi	-11.317
gard	-11.317
▁seçilme	-11.3171
▁Warner	-11.3171
▁ayrıldığı	-11.3172
▁Şo	-11.3173
▁Hükümeti	-11.3174
▁enstitü	-11.3174
▁mekaniği	-11.3175
▁operatör	-11.3176
▁Kaş	-11.3176
▁Down	-11.3177
▁Single	-11.3178
lendiren	-11.318
▁pirinç	-11.3183
▁Ryan	-11.3184
▁Illinois	-11.3192
orta	-11.3192
▁Kayıt	-11.3193
▁Way	-11.3193
▁Lady	-11.3193
▁bölgelere	-11.3193
▁göstermiş	-11.3195
▁aralığı	-11.3196
▁batıya	-11.3197
▁Bağımsızlık	-11.3198
▁pembe	-11.3201
▁verdiğini	-11.3201
▁Yunus	-11.3201
▁hap	-11.3201
▁Nikolay	-11.3201
▁çevreleyen	-11.3205
▁Dağlık	-11.3206
▁noktasına	-11.3208
▁Kül	-11.3209
▁Philadelphia	-11.3209
▁Havaalanı	-11.3209
▁karşılaşmada	-11.321
rag	-11.321
▁çekmek	-11.3212
▁Sabah	-11.3216
▁kaydedilen	-11.3218
▁deyişle	-11.322
▁ülkelere	-11.322
▁Gökçe	-11.3221
▁doğrulama	-11.3222
▁Rapor	-11.3223
▁uygulanma	-11.3223
çağ	-11.3227
▁Yerleşim	-11.3227
▁Kuvvet	-11.3229
▁şirketlerin	-11.3229
▁kanama	-11.3229
▁yazarın	-11.323
EV	-11.3232
▁kazası	-11.3234
▁Netflix	-11.3236
▁sistematik	-11.3236
boynuz	-11.3238
▁Ovası	-11.3238
▁hazırlanmış	-11.3239
▁sıralamasında	-11.324
mper	-11.324
▁duyulan	-11.324
▁sanatçıların	-11.3242
lamaz	-11.3243
▁yenme	-11.3244
▁kısıt	-11.3244
▁kafatası	-11.3246
▁sunulmuştur	-11.3246
▁kayalık	-11.325
▁bununla	-11.3251
üncü	-11.3252
şak	-11.3252
ruz	-11.3253
▁Kaza	-11.3254
rık	-11.3254
▁İnönü	-11.3254
▁isminin	-11.3254
dip	-11.3259
▁görüşler	-11.3259
▁Adıyaman	-11.3262
▁Kaç	-11.3263
▁döndükten	-11.3264
▁performansını	-11.3265
▁Bruce	-11.327
▁anlaşmaya	-11.3272
▁kullanımına	-11.3274
abil	-11.3279
▁mevzi	-11.328
▁İslâm	-11.328
▁çarptırıldı	-11.3285
poli	-11.3288
▁diktatör	-11.3289
▁mimarlık	-11.3289
▁Alexandr	-11.329
▁sürdürül	-11.3291
▁çözme	-11.3293
▁giderken	-11.3296
▁bağımsızlığı	-11.3297
▁ayakkabı	-11.3297
▁Cast	-11.3298
büyük	-11.3298
▁Tanı	-11.3298
▁güçlendirme	-11.33
▁müzakere	-11.3303
▁sürmüş	-11.3305
▁çözelti	-11.3306
▁İsrailli	-11.3307
▁yarışmanın	-11.3311
▁doktorasını	-11.3311
▁toplantısında	-11.3312
▁Büyükelçisi	-11.3312
▁balıkçı	-11.3312
▁sulama	-11.3312
oper	-11.3313
▁gerektiren	-11.3315
▁şövalye	-11.3315
▁atanan	-11.3317
▁Anderson	-11.3317
▁ilgilendi	-11.3319
▁paylaşıl	-11.3321
▁pozisyonu	-11.3322
▁doktoru	-11.3322
▁maçlarında	-11.3323
▁nefes	-11.3327
▁kurtulma	-11.3331
▁eşitlik	-11.3332
▁Form	-11.3332
▁çoğunun	-11.3333
▁kompozisyon	-11.3333
▁havaalanı	-11.3333
▁kasabadır	-11.3333
▁fırlatma	-11.3334
▁kartı	-11.3335
▁durumdadır	-11.3338
fobi	-11.3338
▁fla	-11.3339
▁azaltma	-11.334
▁silahı	-11.334
▁şüpheli	-11.3341
▁Isparta	-11.3342
▁düzgün	-11.3344
▁ülkelerden	-11.3344
▁uyarlanan	-11.3346
▁Merc	-11.3349
▁yayımladığı	-11.335
▁Lake	-11.3351
hidr	-11.3351
yarı	-11.3356
▁Jay	-11.3358
▁toprağa	-11.336
▁beraberlik	-11.3361
▁yükleme	-11.3361
▁azalması	-11.3362
lendirildi	-11.3362
▁satıcı	-11.3364
▁merceksi	-11.3367
▁beyan	-11.3368
რ	-11.3368
▁canlandırmıştır	-11.3369
▁Bonn	-11.3369
▁koruyan	-11.337
melidir	-11.3371
▁Gösteri	-11.3372
▁problemi	-11.3373
▁İnce	-11.3374
▁incelenmesi	-11.3375
▁sözlerini	-11.3375
iyesi	-11.3377
FI	-11.3377
▁Uzak	-11.3378
▁kına	-11.3379
▁makaleler	-11.3379
▁ayrılmaktadır	-11.338
etto	-11.3385
culuk	-11.3387
▁yayınlanması	-11.3387
▁ayrıldıktan	-11.3388
▁Aero	-11.339
▁yöneldi	-11.3395
▁oluşma	-11.3396
▁yapılı	-11.3396
mî	-11.3397
▁çıkışını	-11.3398
▁türünün	-11.34
▁boşluğu	-11.3401
▁Sofya	-11.3404
▁Kürdistan	-11.3404
▁arabası	-11.3404
▁karşısına	-11.3406
▁Bos	-11.3408
▁Finali	-11.3409
▁potansiyeli	-11.341
▁özelliklere	-11.341
▁Vel	-11.3411
▁Ertuğrul	-11.3413
▁mısır	-11.3413
▁toplamı	-11.3414
▁ilişkilerin	-11.3415
▁devletinin	-11.3415
▁bilet	-11.3416
▁Bekir	-11.3417
ttığı	-11.3418
▁çürü	-11.3423
▁sansür	-11.3424
▁başlı	-11.3425
▁yollarını	-11.3426
▁söyleyen	-11.3426
▁çarpma	-11.3426
▁giydiği	-11.3431
▁Mevl	-11.3433
▁tüket	-11.3435
▁tıpkı	-11.3435
▁ailesinden	-11.3439
▁Üzerine	-11.344
▁seçeneği	-11.344
▁Sezonun	-11.3444
▁yapabilir	-11.3444
▁kiralandı	-11.3446
Star	-11.3447
▁dillerinde	-11.3447
▁götürül	-11.3447
▁Halen	-11.3447
▁Pil	-11.3448
▁programını	-11.345
▁Müslümanların	-11.3452
▁olunca	-11.3453
▁Petrol	-11.3453
▁yerleşen	-11.3457
▁kemiği	-11.3459
▁Patrick	-11.3459
laştırılmış	-11.346
▁galibiyeti	-11.346
▁Medya	-11.3461
▁üstünlük	-11.3462
▁takdir	-11.3463
SF	-11.3465
▁Lyon	-11.3465
yaklaşık	-11.3465
▁Benjamin	-11.3467
▁Sekiz	-11.3468
▁medeniyet	-11.3468
▁eleştirdi	-11.3469
▁aşağıda	-11.3469
▁Batılı	-11.3471
▁tanımlayan	-11.3472
▁günah	-11.3472
▁çıkmak	-11.3473
▁Büyü	-11.3474
phon	-11.3475
▁Anlaşması	-11.3476
▁mesleği	-11.3476
▁kopar	-11.3477
▁Jung	-11.3477
▁kurmaya	-11.3477
pul	-11.3483
▁Mühendislik	-11.3485
▁vasıtasıyla	-11.3485
▁örgütlenme	-11.3486
▁iri	-11.3489
▁bileşikler	-11.3491
▁Pic	-11.3493
▁açlık	-11.3493
▁terminal	-11.3494
▁kalarak	-11.3499
▁surları	-11.35
▁kalmayı	-11.3502
▁üretiminde	-11.3503
▁Fall	-11.3503
▁Brüksel	-11.3503
▁sunum	-11.3504
▁bulunmadığı	-11.3507
▁düzenlemeler	-11.3509
▁Hakkı	-11.3512
▁Kırgızistan	-11.3512
▁tanımlandı	-11.3515
▁olasılıkla	-11.3518
▁makineleri	-11.3518
Ab	-11.3519
▁Müziği	-11.3521
▁Yargı	-11.3522
ngel	-11.3524
▁yönetiminin	-11.3525
▁kullanıcının	-11.3527
▁danışman	-11.3527
▁Samsunspor	-11.3528
▁belirlenmiş	-11.3528
▁turnuvanın	-11.353
▁Lawrence	-11.353
▁yerleşke	-11.353
▁British	-11.3531
▁zarfında	-11.3532
▁yetiştirme	-11.3532
▁haklar	-11.3533
▁ekmek	-11.3534
reseptör	-11.3536
▁McG	-11.3538
▁yazarlığı	-11.3539
▁başlarına	-11.3539
▁Antarktika	-11.3539
▁Margaret	-11.3539
opter	-11.3541
▁maçlarda	-11.3544
▁çıkaran	-11.3544
▁Sarah	-11.3548
▁edileme	-11.3548
▁Hürriyet	-11.3548
▁Mareşal	-11.3548
yoruz	-11.355
▁kadınlara	-11.355
▁teşkilatı	-11.3551
▁yeme	-11.3553
▁ekseni	-11.3555
▁zorluklar	-11.3556
▁yaklaştı	-11.356
leştirilir	-11.356
▁öğretmenlik	-11.3562
hic	-11.3563
▁isimdir	-11.3564
▁Medine	-11.3566
▁tramvay	-11.3567
▁Ohio	-11.3567
▁donatılmış	-11.3568
▁geçmeden	-11.357
▁benzerlik	-11.357
▁tanrıça	-11.3577
lanıyordu	-11.3578
▁odaklı	-11.3579
▁mürettebat	-11.3581
▁kullanılabil	-11.3582
▁çaldı	-11.3586
lendirilmesi	-11.3587
▁gidil	-11.3589
ruh	-11.3589
▁Çetin	-11.3589
▁Kapı	-11.3592
ptik	-11.3592
▁Burg	-11.3592
▁Tapınağı	-11.3594
▁destan	-11.3594
▁tüketimi	-11.3595
▁halini	-11.36
▁lira	-11.36
▁adresi	-11.3601
▁Asteraceae	-11.3604
▁Clo	-11.3604
laşım	-11.3605
▁aradan	-11.3606
▁düşünülür	-11.3612
kapı	-11.3613
▁karayolu	-11.3614
▁yıldızın	-11.3616
GA	-11.3617
▁lehçe	-11.3619
▁artırmak	-11.362
▁taraftar	-11.3621
▁Senaryo	-11.3621
▁geminin	-11.3623
ûn	-11.3624
ilecek	-11.3625
▁Tank	-11.3625
▁havayolu	-11.3625
sberg	-11.3627
▁Rusların	-11.3629
▁organizma	-11.363
▁atadı	-11.3633
SL	-11.3633
▁ocak	-11.3634
▁Lind	-11.3634
▁çıkıntı	-11.364
▁tabanca	-11.364
▁tarafına	-11.3641
▁Gru	-11.3643
▁köken	-11.3643
▁Leonard	-11.3643
▁müzakereler	-11.3643
▁şeytan	-11.3643
▁Valiliği	-11.3646
duğunu	-11.3647
▁akı	-11.3648
▁Temsilciler	-11.3649
▁sezonudur	-11.3654
▁programının	-11.3656
▁hacim	-11.3657
▁yazılır	-11.3658
▁prototip	-11.3658
▁yenilerek	-11.3659
jik	-11.366
▁anlamlı	-11.3662
▁Sul	-11.3662
NO	-11.3664
PD	-11.3665
uff	-11.3666
▁casus	-11.3668
▁Gy	-11.367
▁Franklin	-11.3671
▁ilerlemesi	-11.3673
▁Dava	-11.3676
▁evlenmiştir	-11.3676
▁Giovanni	-11.3676
▁Eve	-11.3677
▁fiziği	-11.3677
▁Göktürk	-11.3677
▁Mina	-11.3679
▁feshedil	-11.368
▁faaliyetlerine	-11.3681
▁sırayı	-11.3683
modern	-11.3684
▁Eren	-11.3685
eviç	-11.3686
▁Budist	-11.3688
▁peşinde	-11.3691
roma	-11.3691
▁albümünden	-11.3692
ladığını	-11.3692
▁örtü	-11.3693
▁monte	-11.3693
▁Türkmenistan	-11.3696
▁tanıdı	-11.3696
▁savcı	-11.3697
▁uygulanır	-11.37
▁Cher	-11.37
▁dağıldı	-11.3701
▁standardı	-11.3704
▁menajer	-11.3704
▁Gustav	-11.3704
spekt	-11.3707
▁başlamadan	-11.3707
leştirildi	-11.3709
▁kalenin	-11.371
▁fiilen	-11.3713
▁yetmezliği	-11.3713
▁Kontrol	-11.3714
▁Duvar	-11.3714
▁Böylelikle	-11.3723
▁Fet	-11.3726
▁yaşıyor	-11.3727
▁kralın	-11.3727
▁çözümü	-11.3729
▁adamın	-11.373
▁kırılma	-11.3731
▁Vic	-11.3731
▁kaliteli	-11.3731
ebildi	-11.3731
▁şahıs	-11.3732
▁bisikletçi	-11.3736
▁virüsü	-11.3739
▁Demokrasi	-11.3741
▁seramik	-11.3741
hov	-11.3741
▁Sünni	-11.3742
▁kurulmasına	-11.3742
▁geçirmesi	-11.3743
▁hikâyesini	-11.3747
Ju	-11.3749
▁edilmeye	-11.3749
MO	-11.375
▁Makedon	-11.3752
band	-11.3753
▁yapıp	-11.3754
▁temelli	-11.3755
▁dolaşım	-11.376
statik	-11.3761
▁Indiana	-11.3763
▁güneyindeki	-11.3767
ûr	-11.3769
▁olmuşlardır	-11.3769
▁eserlerin	-11.377
▁Hawk	-11.377
▁kararıyla	-11.3771
▁alev	-11.3776
▁erişimi	-11.3776
thor	-11.3777
▁mezunu	-11.3779
yapı	-11.378
▁Melik	-11.378
EP	-11.378
▁Temp	-11.3781
hall	-11.3782
▁inceleyen	-11.3783
▁tarama	-11.3783
▁bulgular	-11.3786
▁çene	-11.3786
▁soykırım	-11.3787
▁başladığında	-11.379
▁Mam	-11.3795
Jo	-11.3795
▁metrelik	-11.3799
▁çubuk	-11.38
▁Rosa	-11.38
TH	-11.3803
▁çıkmasına	-11.3805
düzenlenmektedir	-11.3805
▁Wu	-11.3808
▁Üye	-11.3808
▁resimler	-11.3808
▁İsmet	-11.3809
▁gezegenin	-11.3809
▁Tekirdağ	-11.3815
▁ibaret	-11.3815
▁getiri	-11.3817
▁Kali	-11.3817
▁duran	-11.3824
Coğrafya	-11.3825
CF	-11.3826
CC	-11.3826
▁kurar	-11.3827
▁Cihan	-11.3828
▁dakikalık	-11.3831
▁başaran	-11.3832
▁kabartma	-11.3834
▁gerekiyordu	-11.3837
▁oturma	-11.3843
▁Barajı	-11.3844
thon	-11.3844
▁çoğunluğunu	-11.3845
▁programına	-11.3849
lenip	-11.3851
▁karaciğer	-11.3853
▁Bingöl	-11.3853
▁çöküşü	-11.3853
▁krallığı	-11.3855
▁gözetim	-11.3855
▁tersi	-11.3855
▁olaydan	-11.3856
▁parçasıydı	-11.3858
AB	-11.3858
▁belirterek	-11.3862
▁iletim	-11.3863
▁hastaneye	-11.3865
▁Bala	-11.3871
▁kromozom	-11.3871
▁Öykü	-11.3871
▁görünüyor	-11.3872
▁evcil	-11.3872
▁Defter	-11.3876
▁korunmuş	-11.3878
▁takı	-11.388
▁mercekli	-11.388
▁giyer	-11.3881
▁nedenlerle	-11.3883
▁tamamlanması	-11.3884
▁galeri	-11.3886
▁bağlamda	-11.3888
▁Jar	-11.3889
▁Gençlerbirliği	-11.389
▁Padişah	-11.389
▁karakteristik	-11.3893
▁sürecini	-11.3893
▁katkısı	-11.3894
ıklı	-11.3894
▁kupayı	-11.3895
▁artırma	-11.3896
ograph	-11.3897
▁mizah	-11.39
AK	-11.3901
vizyon	-11.3907
▁yerleştirildi	-11.3908
▁Mini	-11.3908
▁konsantrasyon	-11.3909
▁sayısına	-11.3914
Japon	-11.3917
▁öldürülen	-11.3919
▁Mesih	-11.392
▁ofisi	-11.3921
▁hastalıkları	-11.3925
kimya	-11.3927
▁harekâtı	-11.3927
▁açılmış	-11.3928
▁Somali	-11.3928
göl	-11.3934
▁faaliyete	-11.3935
▁Boris	-11.3942
▁senaryosu	-11.3944
vra	-11.3946
landırılmış	-11.3946
▁Stein	-11.3951
▁Fethi	-11.3951
▁kullanıyor	-11.3951
▁kuralı	-11.3952
▁katılımıyla	-11.3955
▁Nehir	-11.3956
▁Enver	-11.396
▁toplumu	-11.3961
▁töreninde	-11.3964
▁oranla	-11.3965
▁Donald	-11.3966
▁plaj	-11.3968
▁diploma	-11.397
▁Messi	-11.3971
▁eserini	-11.3975
▁yüzme	-11.3976
▁versiyonları	-11.3982
▁São	-11.3984
▁Seattle	-11.3985
▁Çoğunlukla	-11.3985
▁kaydedilmiş	-11.3985
▁İzmit	-11.3986
▁Ör	-11.399
▁vermeyi	-11.3991
▁salgın	-11.3993
▁Kuru	-11.3994
▁Karabük	-11.3996
lmaz	-11.3996
▁Howard	-11.3997
▁Bulut	-11.3997
▁yönetimini	-11.3998
▁Tuva	-11.4001
▁köşesinde	-11.4002
▁reddedil	-11.4002
▁canavar	-11.4004
▁yazarıdır	-11.4006
▁İttifakı	-11.4007
▁çevrildi	-11.4009
▁hayali	-11.4012
▁turnesi	-11.4013
▁dinozor	-11.4013
▁kuvvetli	-11.4018
saray	-11.4019
▁araştırması	-11.4021
▁Houston	-11.4023
▁parçacıklar	-11.4023
▁birincisi	-11.4024
▁civarı	-11.4024
▁tuğla	-11.4025
▁Homer	-11.4026
▁gelişmiştir	-11.4027
▁Football	-11.4032
▁manevi	-11.4033
▁etkisiz	-11.4034
▁önerisi	-11.4037
▁aktarma	-11.404
▁şifreleme	-11.404
▁nitelen	-11.4041
▁tümör	-11.4042
▁yönlendirme	-11.4043
▁Şeker	-11.4045
yâ	-11.4045
amayacağı	-11.4051
▁Stephan	-11.4051
▁Erivan	-11.4051
▁emek	-11.4052
▁karşılandı	-11.4055
▁isyancılar	-11.4056
▁Erdem	-11.4056
▁uzat	-11.406
▁kökleri	-11.4062
▁üçü	-11.4065
▁tanınması	-11.4067
▁masal	-11.4069
▁Abi	-11.407
▁kaplan	-11.407
▁kayma	-11.407
▁tutulan	-11.407
füzyon	-11.407
▁Vasil	-11.4072
▁rektör	-11.4073
▁Girl	-11.4073
▁bulundukları	-11.4074
▁İsyanı	-11.4074
amiral	-11.4076
▁Kru	-11.4077
▁mesajı	-11.4077
▁yarışmacı	-11.4078
▁düzenlemesi	-11.4078
▁konuşur	-11.4078
▁herkesin	-11.4079
▁heykeltıraş	-11.408
▁hattının	-11.4081
▁yayınlanmaya	-11.4081
▁Brook	-11.4087
▁metredir	-11.4088
▁katsayı	-11.4089
▁Süryani	-11.409
▁nedenlerden	-11.409
▁tekstil	-11.4099
▁duyan	-11.4099
▁sergiler	-11.4101
▁beldeye	-11.4106
▁yorumcu	-11.4107
▁bağışıklık	-11.4109
▁havacılık	-11.411
▁ayıran	-11.4111
▁çeşitleri	-11.4114
▁Araştırmaları	-11.4114
▁ertele	-11.4117
▁Stüdyo	-11.4118
▁beslenir	-11.4119
▁Yaprak	-11.412
▁şehirlerde	-11.4123
▁bölgelerine	-11.4124
▁Filistinli	-11.4125
▁oğlunun	-11.4126
▁Emniyet	-11.4128
▁kelimeler	-11.4128
▁derinliği	-11.4128
▁Tarihçi	-11.4129
▁XI	-11.4129
▁Komite	-11.4132
▁adasında	-11.4133
▁ağırlığında	-11.4135
Amerikan	-11.4137
▁Bour	-11.4137
ülasyon	-11.4137
▁karşılaşmasında	-11.4139
leştirerek	-11.4139
TM	-11.4141
▁tavan	-11.4142
▁kaldıktan	-11.4145
İng	-11.4146
▁kentinin	-11.4146
▁Ltd	-11.4149
▁stüdyosu	-11.4152
▁yönelt	-11.4156
▁Valentin	-11.4157
▁yaratmak	-11.4158
▁kabileleri	-11.4158
▁Filo	-11.4159
▁leke	-11.416
▁German	-11.4163
▁Taka	-11.4163
İstanbul	-11.4165
onomi	-11.4166
▁çalışmalarıyla	-11.4167
▁buçuk	-11.417
▁Spo	-11.4174
▁Kabil	-11.4175
▁Katedrali	-11.4176
▁bilişsel	-11.4176
▁First	-11.4176
▁Liste	-11.4177
▁görmektedir	-11.4179
▁kaygı	-11.418
▁tiyatrosu	-11.4181
▁gerektir	-11.4183
▁konumundadır	-11.4184
▁Miz	-11.4185
▁Bangladeş	-11.4186
▁yıldızların	-11.4186
UR	-11.4187
▁Yugoslav	-11.4189
▁mutasyon	-11.419
▁XX	-11.4194
▁öğle	-11.4197
▁gittikçe	-11.4197
ML	-11.4199
▁Summer	-11.4199
▁Bilimsel	-11.4201
▁kategoride	-11.4201
▁Arı	-11.4202
▁kaybeder	-11.4203
▁kentindeki	-11.4203
▁açılır	-11.4205
▁Four	-11.4207
▁bağlanma	-11.4207
llah	-11.4209
▁seçenek	-11.4211
▁Zürih	-11.4215
▁prosedür	-11.4215
▁damga	-11.4216
DR	-11.4219
▁problemleri	-11.422
▁Ludwig	-11.4224
▁sensör	-11.4225
▁ömür	-11.4225
▁işletil	-11.4227
doğu	-11.4227
▁bucaktır	-11.4228
▁olamadı	-11.4232
▁Eleme	-11.4233
▁kuyruklu	-11.4234
▁LGBT	-11.4234
▁masraf	-11.4234
resmî	-11.4237
karbon	-11.4237
▁Konsey	-11.4237
▁eklenmesi	-11.424
▁beton	-11.4241
▁kopyası	-11.4241
▁ailelerin	-11.4242
▁Hastalık	-11.4242
▁Çu	-11.4242
▁küçül	-11.4244
▁tepkiler	-11.4244
▁Russell	-11.4244
▁Hanlığı	-11.4245
▁Beck	-11.4246
▁Fars	-11.4247
▁toplamak	-11.4252
▁etkilerini	-11.4253
▁yönetildi	-11.4254
▁kronik	-11.4254
landığında	-11.4255
▁yürütülmektedir	-11.4256
▁reddeder	-11.4256
▁başlanan	-11.4256
ovo	-11.4257
▁prim	-11.4259
▁otoyol	-11.4261
▁Binası	-11.4262
▁öldürül	-11.4263
▁hocası	-11.4263
▁Simpson	-11.4263
▁keşiş	-11.4264
▁Dük	-11.4264
▁husus	-11.4265
▁Afro	-11.4267
▁Book	-11.4268
▁efsanevi	-11.4269
tical	-11.4271
▁bağlantıları	-11.4273
▁Micro	-11.4273
▁yönleri	-11.4278
▁mahallesinde	-11.4278
▁unsurlar	-11.4279
▁Organizasyon	-11.428
▁giymiş	-11.428
▁havzası	-11.4283
▁Sadrazam	-11.4283
▁NXT	-11.4283
▁aniden	-11.4283
▁gişe	-11.4284
▁kesti	-11.4284
▁çapı	-11.4284
▁cihazı	-11.4284
▁Kemer	-11.4284
▁rastlanır	-11.4286
▁geçirerek	-11.4286
▁kazanılan	-11.4287
▁sürdürme	-11.4288
▁Luis	-11.4288
▁verilerin	-11.4292
▁hiyerarşi	-11.4293
▁Belçikalı	-11.4293
▁Küresel	-11.4296
▁bitirmiştir	-11.4297
▁tanımlanmış	-11.4298
▁Miami	-11.4299
▁buluntular	-11.43
▁öğrenimi	-11.4301
▁ülkesine	-11.4304
▁yüzeyinde	-11.4304
▁taraflı	-11.4305
▁cezaevi	-11.4306
▁Kardeşler	-11.4307
▁kategorisi	-11.4308
▁Kimi	-11.4313
▁yağı	-11.4314
▁şarkıdır	-11.4315
▁Sincan	-11.4316
▁Kaymakam	-11.4322
▁kulübe	-11.4322
▁İhti	-11.4322
▁Esp	-11.4323
▁anlatılır	-11.4324
▁birbirini	-11.4329
▁karşılamak	-11.433
▁lüks	-11.4334
ayet	-11.4334
▁nahiyesine	-11.4336
▁Koro	-11.4337
▁Bisiklet	-11.4343
▁kurumların	-11.4344
▁görünmektedir	-11.4345
asker	-11.4349
▁karşılaşması	-11.435
reme	-11.4351
▁Endülüs	-11.4352
▁bağırsak	-11.4352
▁bölgelerinden	-11.4355
▁Yıllık	-11.4358
▁Jason	-11.4359
▁odaklanma	-11.436
▁Junior	-11.4361
▁ivme	-11.4362
▁yıkılması	-11.4362
▁ziyaretçi	-11.4365
▁yaşarlar	-11.4365
▁mirası	-11.4369
▁Road	-11.4373
▁Fair	-11.4373
▁aralığında	-11.4376
EL	-11.4376
wald	-11.4379
▁Yıllar	-11.4379
▁Önceki	-11.438
▁köpeği	-11.4381
▁dosyaları	-11.4382
stand	-11.4384
▁Moore	-11.4386
Har	-11.4387
▁Marcel	-11.4389
▁etmesiyle	-11.439
▁literatür	-11.4391
▁çömlek	-11.4391
▁Meydan	-11.4394
▁birimler	-11.4396
lect	-11.4396
▁dinleyici	-11.4396
▁Danimarkalı	-11.44
▁ortamında	-11.4402
▁yasağı	-11.4402
Mer	-11.4402
▁Bursaspor	-11.4402
▁etmez	-11.4403
▁şarkılarını	-11.4404
blo	-11.4406
▁Ball	-11.441
▁Mevcut	-11.4411
▁oynuyor	-11.4412
▁kafe	-11.4416
▁Savaştan	-11.4418
▁Kıyı	-11.4423
▁kolon	-11.4424
▁silin	-11.4425
▁kaybetmesi	-11.4427
▁Gay	-11.4428
üyor	-11.4429
▁isabet	-11.4431
▁ulaşması	-11.4431
▁hoca	-11.4435
▁kitlesi	-11.4438
▁basketbolcu	-11.4439
▁milis	-11.444
▁parkı	-11.4441
▁kararını	-11.4442
▁parametre	-11.4444
▁Kule	-11.4449
▁bölme	-11.445
▁Yardım	-11.445
▁Lefkoşa	-11.445
▁Singapur	-11.445
▁Tapınak	-11.445
▁Terakki	-11.445
▁şiddetle	-11.4451
▁nemli	-11.4451
▁kapsamı	-11.4453
▁Ziraat	-11.4453
▁Özbek	-11.4456
▁stres	-11.4459
▁Sub	-11.4463
▁orduya	-11.4464
▁veriyor	-11.4467
▁Abbasi	-11.4468
▁mensupları	-11.4468
▁bitiş	-11.4468
▁dairesel	-11.4469
▁olağan	-11.447
▁banliyö	-11.447
▁belirleyen	-11.4472
▁oynadıktan	-11.4473
▁Viktor	-11.4473
▁Marka	-11.4473
dé	-11.4474
▁Moon	-11.4475
▁soluk	-11.4476
▁dönük	-11.448
▁prömiyeri	-11.448
▁kaydedil	-11.4481
▁Cerrah	-11.4481
▁izlenim	-11.4481
▁söylenen	-11.4482
▁basılan	-11.4485
▁teknolojik	-11.4488
▁müdürlüğü	-11.4488
▁Asıl	-11.4489
miyordu	-11.449
▁kaybederek	-11.4492
▁Kuşatması	-11.4492
benz	-11.4493
▁patlaması	-11.4494
▁Niko	-11.4494
▁prensip	-11.4495
▁papaz	-11.4496
rılan	-11.4496
▁dinsel	-11.4498
▁Lincoln	-11.45
▁ayrılıp	-11.45
▁otoritesi	-11.4501
▁Now	-11.4501
▁Yayla	-11.4503
▁arayüzü	-11.4503
▁belirler	-11.4504
▁atama	-11.4509
▁bulunmayan	-11.4509
▁Platon	-11.451
▁sodyum	-11.451
▁Marksist	-11.451
▁savaşan	-11.4514
▁bakımı	-11.4516
▁Til	-11.4516
▁hakkına	-11.4517
▁çap	-11.4519
▁Digital	-11.452
▁suretiyle	-11.452
▁İttihat	-11.452
▁Kennedy	-11.452
▁geleceği	-11.4521
▁Studio	-11.4525
▁Tunceli	-11.453
▁gösterge	-11.4531
▁kayboldu	-11.4531
▁Emmy	-11.4532
lendirmiş	-11.4534
landırdı	-11.4534
▁Dave	-11.4539
▁nota	-11.454
▁ceset	-11.4541
▁Lider	-11.4542
▁edildiğinde	-11.4546
▁dallarında	-11.4547
▁getirilmiş	-11.4549
▁kışın	-11.4549
▁mezarlığı	-11.455
▁Vakıf	-11.455
▁gücüne	-11.455
▁birleşimi	-11.455
▁Viking	-11.4553
▁delil	-11.4558
▁seviyesinden	-11.4559
▁unsur	-11.4559
▁Frederick	-11.456
PR	-11.4562
▁buluştu	-11.4564
▁kurucuları	-11.4564
Bar	-11.4565
bâ	-11.4567
▁vitamin	-11.4571
▁bırakılması	-11.4573
▁eğitmen	-11.4574
▁bölümlerinde	-11.4576
Fransızca	-11.458
▁bağları	-11.458
▁hırsız	-11.4581
▁Swa	-11.4581
LS	-11.4585
yazar	-11.4585
▁isimlendiril	-11.4587
▁akan	-11.459
▁birliklerini	-11.459
▁feminist	-11.459
▁trafiği	-11.459
▁kostüm	-11.4591
▁Değer	-11.4591
▁kalmaya	-11.4594
▁yerinden	-11.4594
▁edeceği	-11.4597
▁sahasında	-11.4598
▁koltuğu	-11.4601
▁karşılaştırıl	-11.4603
▁Hakkında	-11.4604
Mü	-11.4606
▁yorumu	-11.4608
ötesi	-11.461
▁yıldönümü	-11.4611
▁İstihbarat	-11.4611
▁temelinde	-11.4613
▁Stre	-11.4613
▁kenarları	-11.4614
▁zordur	-11.4615
▁Cons	-11.4615
OK	-11.4618
▁oyların	-11.4621
▁kadroya	-11.4626
▁Şeytan	-11.4626
▁Alfa	-11.4627
▁kazasına	-11.4627
▁Mill	-11.4628
▁istemci	-11.4629
▁Esen	-11.463
▁görmesi	-11.4631
▁büyüğü	-11.4633
▁enlem	-11.4633
▁dilimi	-11.4633
▁Gian	-11.4633
▁doğruladı	-11.4634
▁üniversitesi	-11.4638
▁modelidir	-11.4642
▁gövdesi	-11.4642
▁konseri	-11.4643
arşi	-11.4644
▁anında	-11.4646
ault	-11.4649
▁Olimpi	-11.4651
▁söylüyor	-11.4651
▁yağlı	-11.4651
▁çanak	-11.4651
▁dostu	-11.4654
▁şema	-11.4656
▁büyükelçi	-11.4656
▁Hugh	-11.4661
▁Otomobil	-11.4661
▁Family	-11.4662
▁rahatsızlık	-11.4663
▁Bahar	-11.4666
▁Tsu	-11.4669
▁uzatıl	-11.4671
▁tavır	-11.4672
▁Cole	-11.4674
▁ferman	-11.4674
▁sözcükler	-11.4674
▁çevirme	-11.4675
▁Wel	-11.4676
▁motorları	-11.4678
▁Amiral	-11.4678
▁tarihçisi	-11.4678
▁Europe	-11.4678
▁tutuldu	-11.4681
▁birincilik	-11.4681
▁tahrir	-11.4682
▁gösterilebilir	-11.4683
▁Boo	-11.4684
▁Bürosu	-11.4692
▁tankı	-11.4692
▁abone	-11.4692
▁konumunu	-11.4692
▁özen	-11.4693
şır	-11.4694
▁alabilir	-11.4695
▁döndüğünde	-11.4698
▁dairesi	-11.4699
▁Türkistan	-11.4699
▁edeceğini	-11.4701
▁muhafazakâr	-11.4702
▁halı	-11.4706
▁kelimesinin	-11.4712
▁izleri	-11.4712
▁satranç	-11.4712
▁sözleşmesini	-11.4712
▁gevşe	-11.4712
▁Niğde	-11.4712
▁ilkbahar	-11.4712
▁Wen	-11.4713
▁koyar	-11.4714
PO	-11.4716
adze	-11.472
osaurus	-11.472
▁tarihlenen	-11.4722
▁Leipzig	-11.4722
Eski	-11.4723
▁ithaf	-11.4723
▁depresyon	-11.4723
▁yanındaki	-11.4725
▁çekin	-11.4726
▁onayladı	-11.4727
▁değişti	-11.4729
▁Dalı	-11.4731
▁Boeing	-11.4733
▁çatısı	-11.4733
▁yerleştirilmiş	-11.4735
▁biber	-11.4735
▁Elçi	-11.4735
▁Baskı	-11.4736
telli	-11.4737
▁telif	-11.4737
▁eserlerinin	-11.4738
▁taşınmıştır	-11.4739
▁aslan	-11.4739
▁Zeus	-11.474
▁üretimine	-11.4743
▁Dublin	-11.4743
▁eleştirel	-11.4743
▁İsviçreli	-11.4743
▁finans	-11.4744
▁oyunlarında	-11.4749
izasyonu	-11.4752
▁Row	-11.4753
▁Shakespeare	-11.4753
▁Yüksekokulu	-11.4753
▁alüminyum	-11.4753
▁Yargıtay	-11.4754
▁olmaksızın	-11.4754
▁emin	-11.4755
genellikle	-11.4756
cco	-11.4758
▁Süt	-11.4758
▁bakanlık	-11.4761
▁tarzda	-11.4762
▁Bolşevik	-11.4763
▁komedyen	-11.4763
▁gösterim	-11.4769
▁bakma	-11.477
▁simgesi	-11.4771
▁vakıf	-11.4774
▁Uzman	-11.4774
▁oyma	-11.4774
▁Havacılık	-11.4778
▁şekillerde	-11.478
▁servisi	-11.4785
▁Dönüş	-11.4787
▁Hatun	-11.4789
▁Plak	-11.4789
▁şimdiye	-11.4789
▁istedikleri	-11.479
uşağı	-11.4794
▁filmindeki	-11.4794
▁soğutma	-11.4797
▁sosyalizm	-11.4797
▁imkan	-11.4798
▁formülü	-11.4798
▁İnci	-11.48
▁ermiştir	-11.4802
▁ilâ	-11.4803
landırıldı	-11.4804
▁Limanı	-11.4804
▁vampir	-11.4804
NE	-11.4809
▁Sof	-11.4809
▁ömrü	-11.4813
▁Piskopos	-11.4815
▁özne	-11.4815
▁Sancağı	-11.4817
▁planlı	-11.4819
▁Wer	-11.4821
▁ibn	-11.4821
tüğü	-11.4823
▁türbin	-11.4824
▁İktisat	-11.4825
▁Institute	-11.4827
▁kaptanı	-11.4828
▁malzemesi	-11.4829
▁yarışmayı	-11.483
▁bölünmesi	-11.4831
▁milletvekilliği	-11.4835
▁Manhattan	-11.4835
▁Sidney	-11.4835
▁inanılır	-11.4837
günümüzde	-11.4842
▁istenen	-11.4846
▁önleme	-11.4847
▁bucak	-11.4847
▁ormanları	-11.4847
ebilme	-11.4849
▁Geçici	-11.4849
▁bitirdikten	-11.4851
▁inanma	-11.4851
▁deplasman	-11.4853
▁dönmüş	-11.4855
tipi	-11.4856
▁mühimmat	-11.4856
▁şöhret	-11.4856
▁göçebe	-11.4856
▁pişiril	-11.4856
▁Jordan	-11.4856
pedi	-11.4857
▁Nord	-11.4857
▁sloganı	-11.4859
▁editörü	-11.486
▁korkusu	-11.486
▁kazasının	-11.486
▁ağaçları	-11.4861
▁Kurum	-11.4864
▁obje	-11.4866
▁turnuvaya	-11.4867
▁Harbi	-11.4868
▁Gıda	-11.487
▁kaleyi	-11.4873
odont	-11.4874
▁gürültü	-11.4877
▁yelpaze	-11.4877
▁Kitab	-11.4877
▁Hafta	-11.4878
▁çapta	-11.4881
lağı	-11.4886
▁ırkçı	-11.4886
▁antrenman	-11.4887
▁Siyaset	-11.4887
▁yarıçap	-11.4887
▁buluşma	-11.4889
orum	-11.489
▁düzenleyen	-11.4891
▁Eleştirmenler	-11.4897
▁gömülü	-11.4898
▁amino	-11.4901
▁girmek	-11.4904
diklerini	-11.4906
▁çalışıyor	-11.4907
▁uzmanlaşmış	-11.4907
▁Schleswig	-11.4908
▁Vincent	-11.4908
ος	-11.4908
▁Durum	-11.4908
▁yitirdi	-11.4909
▁romanından	-11.491
dıklarını	-11.491
▁çağı	-11.491
tomi	-11.491
▁Hiro	-11.4911
▁ortaklık	-11.4913
▁şeklini	-11.4914
▁sağlanan	-11.4914
▁gaga	-11.4914
▁formayı	-11.4915
▁Ferrari	-11.4918
▁Styles	-11.4918
▁devrinde	-11.4919
work	-11.492
PG	-11.492
oğraf	-11.492
▁değiştirerek	-11.4922
▁geçerlidir	-11.4923
▁Mirza	-11.4925
▁Blu	-11.4926
▁bulunarak	-11.4928
▁heyecan	-11.4929
▁püskür	-11.493
▁çiğ	-11.493
▁Pul	-11.493
▁memeli	-11.4937
▁konusudur	-11.4938
▁komutası	-11.4939
▁Battle	-11.4942
▁Titan	-11.4944
▁arter	-11.4947
▁oluştu	-11.4947
▁uğradığı	-11.4949
▁Leningrad	-11.495
Kur	-11.495
▁geometrik	-11.4953
▁saatlerinde	-11.4954
sergilenmektedir	-11.4954
▁bölünmüş	-11.496
▁kuşu	-11.496
abiliyor	-11.4962
▁öncesine	-11.4963
▁uzunluk	-11.4964
▁sınırlarını	-11.4964
▁Apollo	-11.4965
ahmet	-11.4966
abilmiştir	-11.4968
▁bakanlığı	-11.4969
▁sade	-11.497
▁telaffuz	-11.497
▁Üretim	-11.497
▁tükenmiş	-11.4971
▁göründü	-11.4973
▁ulaşama	-11.4976
▁Buradaki	-11.4979
▁gösterisi	-11.4979
▁Arp	-11.4979
▁Önemli	-11.4981
▁Magazine	-11.4981
▁belirtmektedir	-11.4981
▁türetilmiştir	-11.4982
▁Renk	-11.4984
opod	-11.4985
▁istasyonları	-11.4988
▁onlarla	-11.4988
▁Aliyev	-11.499
▁Sefer	-11.499
▁plazma	-11.4991
▁zorlu	-11.4992
▁Jerry	-11.4993
▁konuma	-11.4994
▁tasarımcısı	-11.4997
▁boyları	-11.5
▁iyileşme	-11.5002
▁detaylı	-11.5002
▁Suriyeli	-11.5004
Car	-11.5006
▁dilbilim	-11.5007
▁kavramını	-11.5008
▁oynanmıştır	-11.501
▁operasyonları	-11.5011
▁kalkış	-11.5011
▁havuz	-11.5011
▁şaşır	-11.5013
▁çağırdı	-11.5013
▁uğramış	-11.5014
▁Haç	-11.502
▁hastaların	-11.5023
▁Hacettepe	-11.5023
▁muamele	-11.5023
▁aydınlatma	-11.5023
▁devraldı	-11.5023
▁Afgan	-11.5027
▁getirmiş	-11.5028
▁tepkime	-11.5029
▁yayımlanmış	-11.5029
▁itibari	-11.5031
drom	-11.5035
▁benimsedi	-11.5035
▁dolgu	-11.5036
▁dedesi	-11.5036
▁yenilgisi	-11.5036
▁teoremi	-11.5036
▁bildiği	-11.5036
ин	-11.5037
Holstein	-11.5037
▁adli	-11.5039
▁fiili	-11.5043
▁Engel	-11.5043
▁Resmî	-11.5044
reis	-11.5045
▁türlerinin	-11.5046
й	-11.505
▁çevrilmiştir	-11.5051
höyük	-11.5054
▁Başrol	-11.5055
▁Kolej	-11.5058
▁hareketini	-11.5058
▁Kanalı	-11.5059
▁kalmak	-11.5062
glia	-11.5062
▁Bros	-11.5064
▁elektromanyetik	-11.5065
▁Zeynep	-11.5065
▁girişimci	-11.5065
▁Ernst	-11.5066
▁figürü	-11.5069
book	-11.5072
▁kaplıdır	-11.5073
▁Net	-11.5074
▁yenen	-11.5074
▁Çatal	-11.5074
urus	-11.5074
▁Efsane	-11.5076
▁makineli	-11.5076
▁Reform	-11.5076
▁emisyon	-11.5078
▁gizemli	-11.5079
▁istekleri	-11.508
▁başarama	-11.5083
▁Adams	-11.5083
▁korur	-11.5084
pür	-11.5085
▁sınırlama	-11.5086
▁Jandarma	-11.5086
▁idrar	-11.5086
▁açıktır	-11.5088
▁Ortaokul	-11.5089
▁hukukçu	-11.5089
yang	-11.5093
▁valiliği	-11.5096
▁elverişli	-11.5097
▁Stuttgart	-11.5097
▁Avrasya	-11.5097
▁uzlaşma	-11.5099
▁Uluslar	-11.5101
▁Jer	-11.5102
Bil	-11.5103
shima	-11.5106
▁Reichs	-11.5106
▁Kelly	-11.5106
▁duygusu	-11.5106
yüzü	-11.5106
▁Medrese	-11.5107
▁Delta	-11.5108
▁Karakter	-11.5108
▁isyancı	-11.5109
▁süreliğine	-11.5111
▁çekimler	-11.5112
▁çalıştırma	-11.5117
▁İşbirliği	-11.5118
▁girip	-11.5119
▁keşfetme	-11.5121
▁besleme	-11.5122
törler	-11.5123
▁sonuçlarına	-11.5123
▁oraya	-11.5123
▁Devri	-11.5123
▁zorladı	-11.5123
odor	-11.5127
▁kenarı	-11.5127
▁ekstra	-11.5128
▁varisi	-11.5128
ovich	-11.5129
▁şebeke	-11.5129
▁emniyet	-11.5129
dâ	-11.5131
▁keşfedilen	-11.5132
▁deplasmanda	-11.5132
▁tanır	-11.5133
bilimci	-11.5133
▁direk	-11.5138
▁yayılmış	-11.5139
▁anlattı	-11.514
▁tasarımcı	-11.5142
▁Mühendis	-11.5142
▁babasını	-11.5142
▁yığın	-11.5143
▁Cermen	-11.5144
tral	-11.5144
▁kaydetme	-11.5145
▁Makine	-11.5145
▁göstermesi	-11.5147
▁dönüştürme	-11.5147
▁nef	-11.5147
▁Store	-11.5148
▁Matthew	-11.515
▁cephesi	-11.515
▁Jimmy	-11.5151
▁bazlı	-11.5158
▁versiyonunu	-11.5159
▁Beau	-11.516
▁Cir	-11.516
▁diyabet	-11.5161
▁bahsetti	-11.5161
New	-11.5161
▁With	-11.5162
▁Mass	-11.5164
▁sokul	-11.517
▁Fro	-11.517
▁Bükreş	-11.5171
▁ihmal	-11.5171
▁orantılı	-11.5172
▁Gordon	-11.5174
▁Wild	-11.5175
▁Anlaşma	-11.5176
▁Lav	-11.5177
▁Cannes	-11.5179
▁kıdemli	-11.5182
▁Habsburg	-11.5182
▁iğne	-11.5182
▁açılı	-11.5183
▁etkiye	-11.5183
▁SSC	-11.5183
▁rehin	-11.5184
▁adaylık	-11.5185
Hip	-11.5186
▁turistik	-11.5189
▁Baron	-11.5189
▁kavramları	-11.5193
▁taciz	-11.5193
▁Deney	-11.5194
▁Kürtler	-11.5195
▁Kuz	-11.5197
küme	-11.52
çuk	-11.5201
ıldığında	-11.5205
▁çare	-11.5206
▁Kosta	-11.5208
AŞ	-11.5208
▁uyarlanmıştır	-11.5209
▁nihayet	-11.5212
▁Tebriz	-11.5214
▁kazasında	-11.5214
▁tempo	-11.5215
▁çağda	-11.5216
▁görevlileri	-11.5216
▁göstergesi	-11.5216
▁Boyu	-11.5216
▁Meksikalı	-11.5217
▁Fur	-11.5218
▁yasaklandı	-11.5222
▁hâle	-11.5223
▁Çavuş	-11.5225
▁elemeleri	-11.5226
▁askerlerinin	-11.5227
▁beraberinde	-11.5229
▁tutulması	-11.5231
▁çıkacak	-11.5232
▁fakültesi	-11.5234
▁bataklık	-11.5236
▁Museum	-11.5236
▁nakliye	-11.5237
▁görmeye	-11.5238
gger	-11.5239
▁yükselti	-11.5239
▁ailesini	-11.5246
▁melodi	-11.5246
Mil	-11.5247
▁kaymakam	-11.5247
▁Atom	-11.5252
▁inanan	-11.5253
▁topraklarda	-11.5255
▁Arts	-11.5255
▁Bilge	-11.5256
▁fren	-11.5258
▁yetişen	-11.5258
▁Sankt	-11.5258
▁kurtuluş	-11.5258
▁bitirme	-11.5259
▁büyüklükte	-11.5266
▁görülebil	-11.5266
▁ilgilenen	-11.5267
▁Universal	-11.5268
▁bebeği	-11.5268
▁Heyeti	-11.5268
▁ahlaki	-11.5269
▁Wright	-11.5269
▁İznik	-11.5271
är	-11.5271
▁Series	-11.5271
▁kaderi	-11.5273
▁kaplar	-11.5274
▁Operasyonu	-11.5274
print	-11.5278
CH	-11.5278
▁Fotoğraf	-11.5279
▁Polat	-11.5281
▁skorla	-11.5281
▁siyaseti	-11.5282
▁saygın	-11.5285
▁anlattığı	-11.5285
amaması	-11.5286
▁GSYİH	-11.5289
▁Kopenhag	-11.5289
▁takas	-11.53
▁dolaylı	-11.53
▁travma	-11.53
▁duruşma	-11.5301
oyun	-11.5307
▁kısaltıl	-11.5307
▁söylem	-11.5309
opol	-11.5309
▁bağır	-11.5309
▁kullandıkları	-11.531
won	-11.5311
▁doktrin	-11.5311
▁pamuk	-11.5311
▁sürüngen	-11.5311
▁kılın	-11.5312
▁Norveçli	-11.5313
CS	-11.5318
▁Minnesota	-11.5322
vez	-11.5322
▁madeni	-11.5323
▁kayak	-11.5325
▁Hidro	-11.5326
master	-11.5331
▁belirtmek	-11.5332
▁vaftiz	-11.5333
▁acımasız	-11.5333
▁tüzel	-11.5333
▁dokuma	-11.5336
▁lamba	-11.5336
▁Salon	-11.5338
TK	-11.5342
psikiyatri	-11.5344
▁Performans	-11.5344
▁müdahalesi	-11.5344
▁eserlerinde	-11.5344
▁dünyasının	-11.535
▁Marco	-11.5351
▁beta	-11.5354
▁harfler	-11.5354
▁Davut	-11.5354
▁tortu	-11.5358
▁bağlıyken	-11.5363
roll	-11.5365
▁Büyükelçiliği	-11.5369
▁dostluk	-11.537
▁grubundan	-11.5371
▁akışkan	-11.5372
$	-11.5372
▁Putin	-11.5373
▁akıntı	-11.5374
▁Avar	-11.5376
▁Abhazya	-11.5376
▁yazıp	-11.5378
▁kapsamaktadır	-11.5379
▁Konstantinos	-11.5381
▁derhal	-11.5383
▁başbakanlık	-11.5383
▁bırakmak	-11.5383
laştırır	-11.5386
ON	-11.5386
▁Menderes	-11.5387
▁Prince	-11.5388
▁Petersburg	-11.5388
▁ölümüyle	-11.5389
▁konseyi	-11.539
OP	-11.539
▁lehçesi	-11.539
▁bırakan	-11.539
▁Brit	-11.5392
▁Death	-11.5393
▁cismin	-11.5394
▁ağaçlar	-11.5394
▁Efe	-11.5395
lendirir	-11.5396
▁Dick	-11.5396
▁ormanlar	-11.5399
▁öldürülmüştür	-11.5399
▁çamur	-11.54
▁anlatmaktadır	-11.5403
▁reddedildi	-11.5403
▁CIA	-11.5406
▁arda	-11.5407
▁Robin	-11.5408
▁Morgan	-11.5409
▁dinlenme	-11.5409
▁noktaya	-11.5409
▁kullanabilir	-11.5411
éri	-11.5412
belirtilmektedir	-11.5414
▁Ayrı	-11.5417
▁Serdar	-11.5418
▁aletleri	-11.5419
▁Deprem	-11.542
▁simülasyon	-11.542
çiçeği	-11.542
▁edecektir	-11.5422
adam	-11.5423
▁gelmişti	-11.5426
▁duyguları	-11.5427
▁Seul	-11.5428
▁Turnuvası	-11.5428
▁arazisi	-11.5431
▁Esas	-11.5432
▁minare	-11.5432
▁iplik	-11.5433
▁başarır	-11.5433
▁antlaşması	-11.5433
▁tanıştığı	-11.5436
▁Başkanlık	-11.5436
▁gelince	-11.5438
▁sınırına	-11.544
▁yaşlarında	-11.544
ebildiği	-11.5441
▁fethedil	-11.5441
▁şeref	-11.5442
▁âşık	-11.5442
▁çalışarak	-11.5443
▁Last	-11.5445
▁işlevleri	-11.5446
▁konsey	-11.5446
▁bilinci	-11.5446
▁taşınma	-11.5447
▁Burak	-11.5447
▁Kütüphane	-11.5447
▁kısaltması	-11.5448
▁Tepesi	-11.5448
▁Fabrikası	-11.5449
▁çocuklara	-11.5452
▁Maxim	-11.5455
▁gitmiştir	-11.5456
▁İstasyon	-11.5457
▁Swe	-11.5458
▁tümüyle	-11.5462
laştığı	-11.5464
▁anlamak	-11.5465
▁mezarlık	-11.5465
▁çözünürlük	-11.5466
▁zehirli	-11.5469
▁dayandı	-11.5472
▁kuvvetlerini	-11.5474
▁giyil	-11.5476
▁Beat	-11.5478
▁Sö	-11.5484
▁yürütmüştür	-11.5486
▁Sendika	-11.5487
▁saz	-11.5487
▁cemaati	-11.5489
▁dinleme	-11.5493
▁hetero	-11.5496
▁Beyoğlu	-11.5496
▁nöbet	-11.5497
▁Helsinki	-11.5497
▁barındırır	-11.5497
▁platin	-11.5497
▁Ronald	-11.5498
▁proteinler	-11.5503
▁ejderha	-11.5508
▁dokusu	-11.5511
▁reaktör	-11.5512
▁uydusu	-11.5513
escu	-11.5513
kulu	-11.5514
▁istemiş	-11.5514
▁Cook	-11.5514
▁kulübüdür	-11.5517
▁hayır	-11.552
▁matris	-11.552
osfer	-11.5522
▁imzalamıştır	-11.5523
▁eklenir	-11.5525
▁direktörlük	-11.5526
▁ağrısı	-11.5527
▁yürüten	-11.5528
HC	-11.553
▁Esad	-11.553
▁sakatlık	-11.5531
▁katılacak	-11.5536
▁kesit	-11.5537
▁Over	-11.5539
▁Siirt	-11.5541
▁gerilla	-11.5543
▁gönderi	-11.5544
▁yükselişi	-11.5545
▁Gerek	-11.5546
▁odun	-11.5547
▁ustası	-11.5549
▁çökel	-11.555
▁sabahı	-11.555
▁Yurdu	-11.5552
oğlan	-11.5553
▁birbiriyle	-11.5557
▁kaplayan	-11.5558
▁başlattığı	-11.5558
▁kanunla	-11.5559
▁Pier	-11.556
▁oturan	-11.556
bük	-11.5563
▁Müfettiş	-11.5563
▁manevra	-11.5563
▁Göztepe	-11.5565
▁geliştirdiği	-11.5566
▁Copa	-11.5566
▁eğitimci	-11.5571
▁konumuna	-11.5572
▁Grek	-11.5574
yince	-11.5574
▁çanta	-11.5574
▁Yakup	-11.5576
▁terimdir	-11.5577
▁edilemez	-11.5579
▁Apo	-11.558
▁yükselmesi	-11.5582
▁Şair	-11.5582
[...]
